{
  "vocab": [
    " ",
    "<eos>",
    "<sos>",
    "<blank>",
    "<pad>",
    "<unk>",
    "'",
    "'s",
    "'t",
    "0",
    "1",
    "2",
    "3",
    "6",
    "7",
    "a",
    "ab",
    "able",
    "about",
    "above",
    "ac",
    "ad",
    "added",
    "af",
    "after",
    "ag",
    "again",
    "against",
    "ah",
    "ai",
    "ak",
    "al",
    "almost",
    "already",
    "also",
    "always",
    "am",
    "an",
    "and",
    "ans",
    "answered",
    "ant",
    "any",
    "anything",
    "ap",
    "ar",
    "ard",
    "arms",
    "arri",
    "as",
    "ask",
    "asked",
    "at",
    "au",
    "aw",
    "away",
    "ay",
    "b",
    "ba",
    "bao",
    "be",
    "beau",
    "beautiful",
    "became",
    "because",
    "been",
    "before",
    "began",
    "begin",
    "behind",
    "being",
    "belie",
    "believe",
    "better",
    "betwe",
    "between",
    "bi",
    "big",
    "biên",
    "biến",
    "biết",
    "biển",
    "biểu",
    "biệt",
    "black",
    "ble",
    "blo",
    "bo",
    "body",
    "book",
    "both",
    "boy",
    "bre",
    "bri",
    "brother",
    "brought",
    "bu",
    "bui",
    "bur",
    "but",
    "buôn",
    "buồn",
    "buổi",
    "buộc",
    "by",
    "bà",
    "bá",
    "bác",
    "bán",
    "báo",
    "bây",
    "bãi",
    "bè",
    "bèn",
    "bé",
    "bên",
    "bình",
    "bí",
    "bò",
    "bóng",
    "băng",
    "bước",
    "bạc",
    "bại",
    "bạn",
    "bạo",
    "bản",
    "bảo",
    "bảy",
    "bất",
    "bấy",
    "bầu",
    "bậc",
    "bận",
    "bật",
    "bắc",
    "bắn",
    "bắt",
    "bằng",
    "bếp",
    "bệnh",
    "bị",
    "bọn",
    "bỏ",
    "bố",
    "bốn",
    "bổ",
    "bỗng",
    "bộ",
    "bờ",
    "bởi",
    "bụi",
    "bụng",
    "bức",
    "bữa",
    "c",
    "ca",
    "cannot",
    "cao",
    "captain",
    "ce",
    "cei",
    "certain",
    "ch",
    "chia",
    "chief",
    "child",
    "chiếc",
    "chiếm",
    "chiến",
    "chiếu",
    "chiều",
    "chuy",
    "chuyến",
    "chuyển",
    "chuyện",
    "chuẩn",
    "chánh",
    "cháu",
    "cháy",
    "chân",
    "châu",
    "chí",
    "chín",
    "chính",
    "chó",
    "chóng",
    "chú",
    "chúa",
    "chúng",
    "chăm",
    "chăng",
    "chơi",
    "chưa",
    "chương",
    "chạy",
    "chấp",
    "chất",
    "chậm",
    "chắc",
    "chẳng",
    "chặt",
    "chế",
    "chỉ",
    "chị",
    "chịu",
    "chối",
    "chống",
    "chỗ",
    "chớ",
    "chờ",
    "chở",
    "chợ",
    "chục",
    "chủ",
    "chứ",
    "chừng",
    "chữ",
    "ci",
    "cious",
    "ck",
    "cle",
    "clo",
    "close",
    "clu",
    "co",
    "coi",
    "com",
    "comp",
    "con",
    "continu",
    "could",
    "count",
    "country",
    "course",
    "cre",
    "cri",
    "cried",
    "cry",
    "ct",
    "cu",
    "cular",
    "cur",
    "cut",
    "cuối",
    "cuốn",
    "cuộc",
    "cy",
    "cà",
    "càng",
    "cá",
    "các",
    "cái",
    "cân",
    "câu",
    "cây",
    "cãi",
    "còn",
    "có",
    "cô",
    "công",
    "cùng",
    "căn",
    "cũ",
    "cũng",
    "cơ",
    "cơm",
    "cư",
    "cướp",
    "cười",
    "cạnh",
    "cả",
    "cảm",
    "cấm",
    "cấp",
    "cất",
    "cầm",
    "cần",
    "cầu",
    "cẩn",
    "cận",
    "cập",
    "cậu",
    "cắt",
    "cặp",
    "cỏ",
    "cố",
    "cổ",
    "cộng",
    "cờ",
    "cụ",
    "của",
    "cứ",
    "cứu",
    "cử",
    "cửa",
    "cực",
    "d",
    "da",
    "dark",
    "daughter",
    "day",
    "days",
    "de",
    "dead",
    "death",
    "deed",
    "deep",
    "di",
    "didn't",
    "diễn",
    "dle",
    "do",
    "doanh",
    "does",
    "door",
    "doub",
    "doubt",
    "down",
    "dra",
    "dre",
    "ds",
    "du",
    "during",
    "dy",
    "dài",
    "dàng",
    "dành",
    "dám",
    "dáng",
    "dân",
    "dây",
    "dã",
    "dòng",
    "dõi",
    "dù",
    "dĩ",
    "dũng",
    "dương",
    "dưới",
    "dường",
    "dưỡng",
    "dạ",
    "dấu",
    "dần",
    "dầu",
    "dẫn",
    "dậy",
    "dễ",
    "dị",
    "dịch",
    "dọc",
    "dọn",
    "dụ",
    "dụng",
    "dứt",
    "dừng",
    "dữ",
    "dự",
    "dựng",
    "e",
    "each",
    "ear",
    "earth",
    "ed",
    "ef",
    "ei",
    "el",
    "em",
    "en",
    "ence",
    "end",
    "enough",
    "ent",
    "ep",
    "er",
    "es",
    "et",
    "eu",
    "even",
    "ever",
    "every",
    "everything",
    "ex",
    "exc",
    "exp",
    "eye",
    "eyes",
    "f",
    "fa",
    "face",
    "fact",
    "fair",
    "fami",
    "family",
    "fan",
    "far",
    "father",
    "fe",
    "fect",
    "feel",
    "feet",
    "few",
    "fi",
    "find",
    "first",
    "five",
    "flo",
    "fo",
    "follo",
    "foo",
    "foot",
    "for",
    "ford",
    "form",
    "fort",
    "found",
    "fran",
    "fri",
    "friend",
    "from",
    "fron",
    "fu",
    "ful",
    "fur",
    "g",
    "ga",
    "gave",
    "ge",
    "gh",
    "ght",
    "ghét",
    "ghế",
    "gi",
    "gia",
    "giao",
    "girl",
    "give",
    "già",
    "giá",
    "giây",
    "gió",
    "giúp",
    "giường",
    "giả",
    "giải",
    "giấc",
    "giấu",
    "giấy",
    "giận",
    "giật",
    "giặc",
    "giết",
    "giọng",
    "giỏi",
    "giống",
    "giới",
    "giờ",
    "giữ",
    "giữa",
    "glad",
    "gn",
    "go",
    "going",
    "good",
    "got",
    "gra",
    "gre",
    "great",
    "ground",
    "gs",
    "gu",
    "gy",
    "gà",
    "gái",
    "gây",
    "gã",
    "gì",
    "gòn",
    "góc",
    "góp",
    "gương",
    "gạo",
    "gấp",
    "gần",
    "gắn",
    "gắng",
    "gặp",
    "gọi",
    "gốc",
    "gồm",
    "gỗ",
    "gửi",
    "h",
    "ha",
    "had",
    "hai",
    "half",
    "have",
    "having",
    "he",
    "hea",
    "head",
    "heart",
    "help",
    "herself",
    "hi",
    "high",
    "him",
    "himself",
    "hind",
    "hiến",
    "hiền",
    "hiểm",
    "hiểu",
    "hiệp",
    "hiệu",
    "ho",
    "hoa",
    "horse",
    "how",
    "hoài",
    "hoàn",
    "hoá",
    "hoạch",
    "hoạt",
    "hoảng",
    "hoặc",
    "hu",
    "hundred",
    "hur",
    "huyền",
    "huệ",
    "hy",
    "hà",
    "hàm",
    "hàng",
    "hành",
    "hán",
    "hát",
    "hã",
    "hãy",
    "hình",
    "hòa",
    "hóa",
    "hôm",
    "hôn",
    "hùng",
    "hút",
    "hơi",
    "hơn",
    "hương",
    "hướng",
    "hưởng",
    "hạ",
    "hạn",
    "hả",
    "hấp",
    "hầm",
    "hầu",
    "hậu",
    "hắn",
    "hằng",
    "hẳn",
    "hẹn",
    "hết",
    "hề",
    "hệ",
    "họ",
    "học",
    "họp",
    "hỏi",
    "hồ",
    "hồi",
    "hổ",
    "hỗ",
    "hộ",
    "hội",
    "hộp",
    "hợp",
    "hứa",
    "hứng",
    "hữu",
    "i",
    "i'",
    "i'll",
    "i'm",
    "id",
    "idea",
    "if",
    "im",
    "in",
    "indeed",
    "indi",
    "inter",
    "into",
    "ir",
    "is",
    "it",
    "it's",
    "iệ",
    "j",
    "je",
    "ject",
    "jo",
    "john",
    "joy",
    "ju",
    "k",
    "ke",
    "keep",
    "kept",
    "kh",
    "khiến",
    "khoản",
    "khoảng",
    "khuôn",
    "khá",
    "khác",
    "khí",
    "khó",
    "khô",
    "không",
    "khăn",
    "khả",
    "khẩu",
    "khắc",
    "khắp",
    "khỏ",
    "khỏe",
    "khối",
    "khổ",
    "khởi",
    "khủng",
    "ki",
    "kia",
    "kind",
    "kiên",
    "kiếm",
    "kiến",
    "kiểm",
    "kiểu",
    "knew",
    "know",
    "ks",
    "kém",
    "kéo",
    "kép",
    "kêu",
    "kí",
    "kích",
    "kín",
    "kính",
    "ký",
    "kẻ",
    "kế",
    "kết",
    "kể",
    "kịp",
    "kỳ",
    "kỷ",
    "kỹ",
    "l",
    "la",
    "lady",
    "lao",
    "large",
    "law",
    "ld",
    "le",
    "lea",
    "leave",
    "left",
    "leo",
    "less",
    "letter",
    "li",
    "lied",
    "light",
    "like",
    "lip",
    "lish",
    "little",
    "live",
    "liên",
    "liền",
    "liệu",
    "ll",
    "lo",
    "look",
    "lord",
    "lost",
    "love",
    "low",
    "loài",
    "loại",
    "loạn",
    "ls",
    "lt",
    "lu",
    "lui",
    "luyện",
    "luôn",
    "luận",
    "luật",
    "ly",
    "là",
    "làm",
    "lá",
    "lâm",
    "lâu",
    "lã",
    "lãnh",
    "lão",
    "lê",
    "lên",
    "lí",
    "lính",
    "lòng",
    "lôi",
    "lúa",
    "lúc",
    "lý",
    "lăm",
    "lĩnh",
    "lũ",
    "lưng",
    "lưu",
    "lương",
    "lược",
    "lượng",
    "lượt",
    "lạ",
    "lại",
    "lấy",
    "lầm",
    "lần",
    "lẫn",
    "lập",
    "lắm",
    "lắng",
    "lặng",
    "lẻ",
    "lẽ",
    "lễ",
    "lệ",
    "lịch",
    "lối",
    "lỗ",
    "lỗi",
    "lộ",
    "lớ",
    "lớn",
    "lớp",
    "lời",
    "lợi",
    "lục",
    "lừa",
    "lửa",
    "lựa",
    "lực",
    "m",
    "ma",
    "make",
    "man",
    "manner",
    "matter",
    "mber",
    "me",
    "mean",
    "ment",
    "mi",
    "might",
    "mind",
    "missus",
    "miếng",
    "miền",
    "mo",
    "money",
    "month",
    "morning",
    "most",
    "mp",
    "ms",
    "mu",
    "mua",
    "much",
    "mur",
    "muốn",
    "my",
    "myself",
    "mà",
    "má",
    "máy",
    "mã",
    "mãn",
    "mê",
    "mình",
    "món",
    "mô",
    "môn",
    "mù",
    "mùa",
    "mũ",
    "mũi",
    "mơ",
    "mưa",
    "mưu",
    "mươi",
    "mười",
    "mạc",
    "mạng",
    "mạnh",
    "mảnh",
    "mất",
    "mấy",
    "mẫu",
    "mật",
    "mắc",
    "mắn",
    "mắt",
    "mặc",
    "mặt",
    "mẹ",
    "mẽ",
    "mệnh",
    "mệt",
    "mọi",
    "mối",
    "mốt",
    "mỗi",
    "mộ",
    "một",
    "mới",
    "mờ",
    "mời",
    "mở",
    "mục",
    "mức",
    "mừng",
    "mỹ",
    "n",
    "n't",
    "na",
    "nam",
    "nay",
    "ne",
    "need",
    "ness",
    "never",
    "new",
    "next",
    "ney",
    "ng",
    "nga",
    "ngay",
    "nghiêm",
    "nghiên",
    "nghiệm",
    "nghiệp",
    "nghèo",
    "nghìn",
    "nghĩ",
    "nghĩa",
    "nghỉ",
    "nghị",
    "ngoan",
    "ngoài",
    "ngoại",
    "nguy",
    "nguyên",
    "nguyễn",
    "nguyện",
    "nguồn",
    "ngài",
    "ngàn",
    "ngày",
    "ngân",
    "ngã",
    "ngô",
    "ngôi",
    "ngăn",
    "ngũ",
    "ngươi",
    "người",
    "ngược",
    "ngạc",
    "ngại",
    "ngắn",
    "ngọc",
    "ngọn",
    "ngồi",
    "ngờ",
    "ngụ",
    "ngủ",
    "ngừng",
    "ngữ",
    "ngựa",
    "nh",
    "nhau",
    "nhiên",
    "nhiêu",
    "nhiều",
    "nhiệm",
    "nhuận",
    "nhà",
    "nhân",
    "nhé",
    "nhìn",
    "nhóm",
    "như",
    "nhưng",
    "nhất",
    "nhẫn",
    "nhận",
    "nhập",
    "nhật",
    "nhắc",
    "nhắm",
    "nhằm",
    "nhẹ",
    "nhị",
    "nhỏ",
    "nhớ",
    "nhờ",
    "những",
    "ni",
    "nice",
    "night",
    "niên",
    "niềm",
    "niệm",
    "no",
    "not",
    "now",
    "nu",
    "nuôi",
    "ny",
    "nà",
    "nào",
    "này",
    "nâng",
    "nã",
    "não",
    "nãy",
    "nè",
    "nét",
    "nên",
    "nó",
    "nói",
    "nô",
    "nông",
    "núi",
    "năm",
    "năng",
    "nơi",
    "nước",
    "nạn",
    "nấu",
    "nầy",
    "nắm",
    "nắng",
    "nằm",
    "nặng",
    "nếu",
    "nền",
    "nọ",
    "nối",
    "nổ",
    "nổi",
    "nỗ",
    "nỗi",
    "nội",
    "nợ",
    "nửa",
    "nữ",
    "nữa",
    "o",
    "ob",
    "obser",
    "oc",
    "od",
    "of",
    "off",
    "often",
    "oh",
    "ok",
    "ol",
    "old",
    "om",
    "on",
    "once",
    "only",
    "ons",
    "op",
    "or",
    "order",
    "other",
    "others",
    "ou",
    "our",
    "ous",
    "ously",
    "out",
    "over",
    "own",
    "p",
    "pain",
    "paper",
    "par",
    "part",
    "pas",
    "pe",
    "peo",
    "people",
    "perhaps",
    "person",
    "ph",
    "phiếu",
    "phá",
    "pháp",
    "phát",
    "phân",
    "phép",
    "phê",
    "phí",
    "phía",
    "phòng",
    "phó",
    "phóng",
    "phù",
    "phú",
    "phúc",
    "phút",
    "phương",
    "phải",
    "phản",
    "phần",
    "phẩm",
    "phận",
    "phật",
    "phố",
    "phổ",
    "phụ",
    "phủ",
    "phức",
    "pi",
    "pie",
    "place",
    "play",
    "ple",
    "po",
    "poin",
    "point",
    "poor",
    "pos",
    "possible",
    "power",
    "pped",
    "pre",
    "pres",
    "pretty",
    "pri",
    "prin",
    "prince",
    "pro",
    "ps",
    "pu",
    "pur",
    "put",
    "py",
    "q",
    "qu",
    "qua",
    "quan",
    "que",
    "quen",
    "qui",
    "quick",
    "quyết",
    "quyền",
    "quyển",
    "quá",
    "quân",
    "quê",
    "quên",
    "quý",
    "quả",
    "quần",
    "quốc",
    "r",
    "ra",
    "re",
    "read",
    "ready",
    "really",
    "reason",
    "recei",
    "ree",
    "replied",
    "ri",
    "ried",
    "right",
    "river",
    "riêng",
    "ro",
    "road",
    "rom",
    "room",
    "rose",
    "ross",
    "rough",
    "round",
    "row",
    "ru",
    "ruột",
    "ry",
    "ràng",
    "rõ",
    "rút",
    "rơi",
    "rượ",
    "rượu",
    "rất",
    "rằng",
    "rối",
    "rồi",
    "rộng",
    "rời",
    "rủi",
    "rừng",
    "s",
    "sa",
    "sao",
    "sau",
    "saw",
    "saying",
    "says",
    "scar",
    "se",
    "sea",
    "secon",
    "second",
    "see",
    "sel",
    "self",
    "sense",
    "sent",
    "sh",
    "shall",
    "she",
    "shi",
    "ship",
    "sho",
    "short",
    "shou",
    "should",
    "si",
    "sight",
    "since",
    "sion",
    "six",
    "siêu",
    "sle",
    "slow",
    "small",
    "smi",
    "so",
    "some",
    "soon",
    "sort",
    "soul",
    "soát",
    "sp",
    "speak",
    "ss",
    "st",
    "still",
    "su",
    "sub",
    "suc",
    "such",
    "sud",
    "sudden",
    "suddenly",
    "suf",
    "sum",
    "suppose",
    "sur",
    "suất",
    "suốt",
    "swe",
    "sy",
    "sài",
    "sàng",
    "sách",
    "sáng",
    "sát",
    "sáu",
    "sân",
    "sâu",
    "sóc",
    "sóng",
    "sông",
    "súng",
    "sĩ",
    "sơ",
    "sơn",
    "sư",
    "sạch",
    "sản",
    "sắc",
    "sắp",
    "sắt",
    "sẵn",
    "sẻ",
    "sẽ",
    "số",
    "sống",
    "sổ",
    "sớm",
    "sở",
    "sợ",
    "sứ",
    "sức",
    "sử",
    "sự",
    "t",
    "ta",
    "take",
    "talk",
    "tao",
    "te",
    "ter",
    "th",
    "thao",
    "that's",
    "the",
    "thee",
    "their",
    "themselves",
    "theo",
    "they",
    "things",
    "think",
    "thiên",
    "thiết",
    "thiếu",
    "those",
    "though",
    "thought",
    "thoát",
    "thoại",
    "thoải",
    "three",
    "through",
    "thu",
    "thua",
    "thuyết",
    "thuyền",
    "thuê",
    "thuận",
    "thuật",
    "thuế",
    "thuốc",
    "thuộc",
    "thành",
    "thách",
    "thái",
    "tháng",
    "thánh",
    "tháp",
    "thân",
    "thêm",
    "thì",
    "thí",
    "thích",
    "thói",
    "thôi",
    "thông",
    "thù",
    "thú",
    "thúc",
    "thăm",
    "thơ",
    "thư",
    "thương",
    "thường",
    "thấp",
    "thất",
    "thấy",
    "thần",
    "thầy",
    "thậm",
    "thận",
    "thập",
    "thật",
    "thằng",
    "thẳng",
    "thế",
    "thể",
    "thị",
    "thịt",
    "thỏa",
    "thống",
    "thổ",
    "thờ",
    "thời",
    "thở",
    "thợ",
    "thụ",
    "thủ",
    "thứ",
    "thừa",
    "thử",
    "thực",
    "ti",
    "til",
    "time",
    "tion",
    "tiên",
    "tiêu",
    "tiếc",
    "tiến",
    "tiếng",
    "tiếp",
    "tiết",
    "tiềm",
    "tiền",
    "tiểu",
    "tle",
    "tly",
    "to",
    "together",
    "too",
    "towards",
    "toàn",
    "toán",
    "tr",
    "trao",
    "triết",
    "triều",
    "triển",
    "triệu",
    "trong",
    "true",
    "trung",
    "truth",
    "truyền",
    "trà",
    "trách",
    "trái",
    "tránh",
    "trên",
    "trì",
    "trình",
    "trí",
    "trò",
    "trôi",
    "trông",
    "trùng",
    "trăm",
    "trương",
    "trước",
    "trường",
    "trưởng",
    "trại",
    "trạng",
    "trả",
    "trấn",
    "trần",
    "trận",
    "trắng",
    "trẻ",
    "trị",
    "trịnh",
    "trọng",
    "trốn",
    "trời",
    "trở",
    "trợ",
    "trụ",
    "trừ",
    "trực",
    "ts",
    "tu",
    "tur",
    "turn",
    "turned",
    "tuyết",
    "tuyển",
    "tuyệt",
    "tuần",
    "tuổi",
    "twenty",
    "two",
    "ty",
    "tài",
    "tàn",
    "tàu",
    "tá",
    "tác",
    "tám",
    "tâm",
    "tân",
    "tây",
    "tên",
    "tìm",
    "tình",
    "tí",
    "tích",
    "tín",
    "tính",
    "tòa",
    "tòng",
    "tóc",
    "tô",
    "tôi",
    "tôn",
    "tù",
    "tùy",
    "tú",
    "túi",
    "tăng",
    "tĩnh",
    "tư",
    "tại",
    "tạm",
    "tạo",
    "tạp",
    "tả",
    "tấm",
    "tấn",
    "tất",
    "tầm",
    "tần",
    "tận",
    "tập",
    "tắc",
    "tặng",
    "tế",
    "tề",
    "tệ",
    "tỉnh",
    "tỏ",
    "tố",
    "tối",
    "tốt",
    "tồn",
    "tổ",
    "tổng",
    "tộc",
    "tội",
    "tớ",
    "tới",
    "tờ",
    "tục",
    "tụi",
    "tức",
    "từ",
    "tử",
    "tự",
    "tỷ",
    "u",
    "uk",
    "ukraina",
    "un",
    "under",
    "understand",
    "ung",
    "until",
    "up",
    "us",
    "uy",
    "uống",
    "v",
    "va",
    "vai",
    "val",
    "van",
    "ve",
    "very",
    "vi",
    "vice",
    "vie",
    "viên",
    "viết",
    "việ",
    "việc",
    "vo",
    "voi",
    "voice",
    "vu",
    "vua",
    "vui",
    "vy",
    "và",
    "vào",
    "vân",
    "vê",
    "vì",
    "ví",
    "vòng",
    "vô",
    "võ",
    "vùng",
    "văn",
    "vĩ",
    "vũ",
    "vương",
    "vườn",
    "vượt",
    "vạn",
    "vả",
    "vấn",
    "vẫn",
    "vận",
    "vật",
    "vậy",
    "vẻ",
    "vẽ",
    "vết",
    "về",
    "vệ",
    "vị",
    "vọng",
    "vốn",
    "vội",
    "với",
    "vời",
    "vỡ",
    "vợ",
    "vụ",
    "vừa",
    "vững",
    "vực",
    "w",
    "wal",
    "want",
    "war",
    "ward",
    "was",
    "wat",
    "water",
    "way",
    "ways",
    "we",
    "we'",
    "wee",
    "well",
    "went",
    "what",
    "when",
    "where",
    "whether",
    "whi",
    "which",
    "while",
    "who",
    "whole",
    "whose",
    "why",
    "wi",
    "will",
    "windo",
    "window",
    "wish",
    "with",
    "wn",
    "wo",
    "wonder",
    "wood",
    "wor",
    "word",
    "work",
    "world",
    "wou",
    "would",
    "ws",
    "x",
    "xa",
    "xe",
    "xem",
    "xi",
    "xin",
    "xo",
    "xong",
    "xu",
    "xuân",
    "xuất",
    "xuống",
    "xác",
    "xây",
    "xã",
    "xét",
    "xô",
    "xúc",
    "xưa",
    "xương",
    "xảy",
    "xấu",
    "xếp",
    "xứ",
    "xứng",
    "xử",
    "y",
    "ye",
    "year",
    "years",
    "yes",
    "yet",
    "yon",
    "you",
    "you'",
    "your",
    "yên",
    "yêu",
    "yếu",
    "z",
    "ze",
    "à",
    "ài",
    "àn",
    "ành",
    "ào",
    "àu",
    "ày",
    "á",
    "ác",
    "ái",
    "ám",
    "án",
    "áo",
    "áp",
    "át",
    "áu",
    "áy",
    "â",
    "âm",
    "ân",
    "âu",
    "ây",
    "ã",
    "ãi",
    "ãn",
    "è",
    "èm",
    "èn",
    "èo",
    "é",
    "ém",
    "én",
    "éo",
    "ép",
    "ét",
    "ê",
    "êm",
    "ên",
    "êu",
    "ì",
    "ìa",
    "ìm",
    "ìn",
    "ình",
    "í",
    "ích",
    "ính",
    "ít",
    "ò",
    "òa",
    "òi",
    "òn",
    "ó",
    "óa",
    "óc",
    "ói",
    "óm",
    "ón",
    "óng",
    "óp",
    "ót",
    "ô",
    "ôi",
    "ôm",
    "ôn",
    "ông",
    "õ",
    "õi",
    "ù",
    "ùa",
    "ùi",
    "ùm",
    "ùng",
    "ú",
    "úa",
    "úc",
    "úi",
    "úng",
    "úp",
    "út",
    "ý",
    "ă",
    "ăm",
    "ăn",
    "đ",
    "đa",
    "đang",
    "đau",
    "đe",
    "đem",
    "đen",
    "đi",
    "điên",
    "điền",
    "điều",
    "điểm",
    "điệp",
    "đo",
    "đoàn",
    "đoán",
    "đoạn",
    "đu",
    "đuổi",
    "đà",
    "đài",
    "đàn",
    "đào",
    "đá",
    "đâu",
    "đây",
    "đã",
    "đèn",
    "đêm",
    "đình",
    "đích",
    "đòi",
    "đó",
    "đô",
    "đôi",
    "đông",
    "đúng",
    "đơn",
    "đưa",
    "đương",
    "đường",
    "được",
    "đại",
    "đạn",
    "đạo",
    "đạt",
    "đảm",
    "đảng",
    "đảo",
    "đất",
    "đấu",
    "đấy",
    "đầu",
    "đầy",
    "đẩy",
    "đập",
    "đằng",
    "đặc",
    "đặt",
    "đẹp",
    "đế",
    "đến",
    "đề",
    "đều",
    "để",
    "đệ",
    "đỉnh",
    "đị",
    "địa",
    "định",
    "đọc",
    "đỏ",
    "đốc",
    "đối",
    "đốt",
    "đồ",
    "đồng",
    "đổ",
    "đổi",
    "đỗ",
    "độ",
    "động",
    "đời",
    "đỡ",
    "đợi",
    "đủ",
    "đứa",
    "đức",
    "đứng",
    "đừng",
    "đựng",
    "ĩ",
    "ĩnh",
    "ũ",
    "ũng",
    "ơ",
    "ơi",
    "ơn",
    "ư",
    "ưa",
    "ưng",
    "ưu",
    "ươ",
    "ương",
    "ướ",
    "ước",
    "ướng",
    "ườ",
    "ười",
    "ườn",
    "ường",
    "ưởng",
    "ưỡ",
    "ưỡi",
    "ưỡng",
    "ượ",
    "ược",
    "ượn",
    "ượng",
    "ượt",
    "ạ",
    "ạc",
    "ại",
    "ạm",
    "ạn",
    "ạo",
    "ạp",
    "ạt",
    "ạy",
    "ả",
    "ải",
    "ảm",
    "ản",
    "ảo",
    "ảy",
    "ấ",
    "ấc",
    "ấm",
    "ấn",
    "ấp",
    "ất",
    "ấu",
    "ấy",
    "ầ",
    "ầm",
    "ần",
    "ầu",
    "ầy",
    "ẩ",
    "ẩm",
    "ẩn",
    "ẩu",
    "ẩy",
    "ẫ",
    "ẫm",
    "ẫn",
    "ẫu",
    "ẫy",
    "ậ",
    "ậc",
    "ậm",
    "ận",
    "ập",
    "ật",
    "ậu",
    "ậy",
    "ắ",
    "ắc",
    "ắm",
    "ắn",
    "ắp",
    "ắt",
    "ằ",
    "ằm",
    "ằn",
    "ằng",
    "ẳ",
    "ẳn",
    "ẳng",
    "ẵ",
    "ẵn",
    "ặ",
    "ặc",
    "ặm",
    "ặn",
    "ặng",
    "ặp",
    "ặt",
    "ẹ",
    "ẹn",
    "ẹp",
    "ẻ",
    "ẽ",
    "ế",
    "ếc",
    "ếm",
    "ến",
    "ếp",
    "ết",
    "ếu",
    "ề",
    "ềm",
    "ền",
    "ều",
    "ể",
    "ểm",
    "ển",
    "ểu",
    "ễ",
    "ễn",
    "ễu",
    "ệ",
    "ện",
    "ệt",
    "ỉ",
    "ỉnh",
    "ị",
    "ịch",
    "ịp",
    "ọ",
    "ọa",
    "ọc",
    "ọi",
    "ọn",
    "ọng",
    "ọt",
    "ỏ",
    "ỏa",
    "ỏi",
    "ỏng",
    "ố",
    "ốc",
    "ối",
    "ốn",
    "ống",
    "ốt",
    "ồ",
    "ồi",
    "ồm",
    "ồn",
    "ồng",
    "ổ",
    "ổi",
    "ổn",
    "ỗ",
    "ỗi",
    "ỗng",
    "ộ",
    "ộc",
    "ội",
    "ộm",
    "ộn",
    "ộng",
    "ột",
    "ớ",
    "ới",
    "ớm",
    "ớn",
    "ớt",
    "ờ",
    "ời",
    "ở",
    "ởi",
    "ởng",
    "ỡ",
    "ợ",
    "ợi",
    "ợp",
    "ụ",
    "ục",
    "ụi",
    "ụng",
    "ụp",
    "ủ",
    "ủa",
    "ủi",
    "ủng",
    "ủy",
    "ứ",
    "ứa",
    "ức",
    "ứng",
    "ứt",
    "ừ",
    "ừa",
    "ừng",
    "ử",
    "ửa",
    "ửi",
    "ữ",
    "ữa",
    "ững",
    "ữu",
    "ự",
    "ựa",
    "ực",
    "ựng",
    "ỳ",
    "ỵ",
    "ỷ",
    "ỹ",
    "�"
  ],
  "merges": [
    [
      "n",
      "g"
    ],
    [
      "t",
      "h"
    ],
    [
      "n",
      "h"
    ],
    [
      "c",
      "h"
    ],
    [
      "t",
      "r"
    ],
    [
      "th",
      "e"
    ],
    [
      "a",
      "n"
    ],
    [
      "k",
      "h"
    ],
    [
      "e",
      "r"
    ],
    [
      "ô",
      "ng"
    ],
    [
      "o",
      "n"
    ],
    [
      "i",
      "n"
    ],
    [
      "l",
      "à"
    ],
    [
      "p",
      "h"
    ],
    [
      "o",
      "u"
    ],
    [
      "g",
      "i"
    ],
    [
      "v",
      "à"
    ],
    [
      "e",
      "d"
    ],
    [
      "e",
      "n"
    ],
    [
      "t",
      "o"
    ],
    [
      "ờ",
      "i"
    ],
    [
      "ê",
      "n"
    ],
    [
      "q",
      "u"
    ],
    [
      "a",
      "t"
    ],
    [
      "h",
      "i"
    ],
    [
      "an",
      "d"
    ],
    [
      "ộ",
      "t"
    ],
    [
      "r",
      "e"
    ],
    [
      "m",
      "ột"
    ],
    [
      "c",
      "ó"
    ],
    [
      "h",
      "a"
    ],
    [
      "c",
      "á"
    ],
    [
      "a",
      "s"
    ],
    [
      "ô",
      "i"
    ],
    [
      "o",
      "f"
    ],
    [
      "kh",
      "ông"
    ],
    [
      "t",
      "i"
    ],
    [
      "ủ",
      "a"
    ],
    [
      "c",
      "ủa"
    ],
    [
      "h",
      "e"
    ],
    [
      "o",
      "r"
    ],
    [
      "ư",
      "ời"
    ],
    [
      "ớ",
      "i"
    ],
    [
      "t",
      "a"
    ],
    [
      "ư",
      "ợ"
    ],
    [
      "ng",
      "ười"
    ],
    [
      "ấ",
      "t"
    ],
    [
      "ạ",
      "i"
    ],
    [
      "t",
      "ôi"
    ],
    [
      "a",
      "r"
    ],
    [
      "l",
      "l"
    ],
    [
      "e",
      "s"
    ],
    [
      "nh",
      "ư"
    ],
    [
      "s",
      "a"
    ],
    [
      "ì",
      "nh"
    ],
    [
      "ế",
      "t"
    ],
    [
      "i",
      "t"
    ],
    [
      "ữ",
      "ng"
    ],
    [
      "nh",
      "ững"
    ],
    [
      "u",
      "y"
    ],
    [
      "đ",
      "i"
    ],
    [
      "i",
      "s"
    ],
    [
      "ế",
      "n"
    ],
    [
      "ượ",
      "c"
    ],
    [
      "r",
      "a"
    ],
    [
      "n",
      "à"
    ],
    [
      "ấ",
      "y"
    ],
    [
      "n",
      "ó"
    ],
    [
      "l",
      "e"
    ],
    [
      "đ",
      "ược"
    ],
    [
      "h",
      "o"
    ],
    [
      "â",
      "n"
    ],
    [
      "tr",
      "ong"
    ],
    [
      "m",
      "e"
    ],
    [
      "s",
      "e"
    ],
    [
      "m",
      "à"
    ],
    [
      "b",
      "e"
    ],
    [
      "i",
      "ệ"
    ],
    [
      "n",
      "o"
    ],
    [
      "ề",
      "u"
    ],
    [
      "c",
      "on"
    ],
    [
      "ả",
      "i"
    ],
    [
      "đ",
      "ã"
    ],
    [
      "a",
      "y"
    ],
    [
      "ầ",
      "n"
    ],
    [
      "ư",
      "ơ"
    ],
    [
      "ư",
      "ớ"
    ],
    [
      "đ",
      "ó"
    ],
    [
      "v",
      "ới"
    ],
    [
      "r",
      "o"
    ],
    [
      "ạ",
      "n"
    ],
    [
      "l",
      "i"
    ],
    [
      "ch",
      "ú"
    ],
    [
      "e",
      "m"
    ],
    [
      "cá",
      "c"
    ],
    [
      "l",
      "y"
    ],
    [
      "h",
      "ọ"
    ],
    [
      "đ",
      "ể"
    ],
    [
      "l",
      "ại"
    ],
    [
      "c",
      "ả"
    ],
    [
      "l",
      "d"
    ],
    [
      "â",
      "y"
    ],
    [
      "th",
      "ì"
    ],
    [
      "g",
      "h"
    ],
    [
      "c",
      "e"
    ],
    [
      "ố",
      "ng"
    ],
    [
      "i",
      "d"
    ],
    [
      "l",
      "o"
    ],
    [
      "w",
      "as"
    ],
    [
      "v",
      "e"
    ],
    [
      "th",
      "ể"
    ],
    [
      "ướ",
      "c"
    ],
    [
      "c",
      "ũ"
    ],
    [
      "nà",
      "y"
    ],
    [
      "là",
      "m"
    ],
    [
      "y",
      "ou"
    ],
    [
      "á",
      "c"
    ],
    [
      "ằ",
      "ng"
    ],
    [
      "b",
      "i"
    ],
    [
      "m",
      "ình"
    ],
    [
      "b",
      "u"
    ],
    [
      "ầ",
      "u"
    ],
    [
      "cũ",
      "ng"
    ],
    [
      "à",
      "nh"
    ],
    [
      "d",
      "o"
    ],
    [
      "ồ",
      "i"
    ],
    [
      "đ",
      "ến"
    ],
    [
      "ph",
      "ải"
    ],
    [
      "s",
      "o"
    ],
    [
      "cá",
      "i"
    ],
    [
      "ă",
      "m"
    ],
    [
      "ư",
      "ờ"
    ],
    [
      "ươ",
      "ng"
    ],
    [
      "f",
      "or"
    ],
    [
      "v",
      "ề"
    ],
    [
      "c",
      "u"
    ],
    [
      "ườ",
      "ng"
    ],
    [
      "â",
      "u"
    ],
    [
      "ứ",
      "c"
    ],
    [
      "b",
      "ạn"
    ],
    [
      "ậ",
      "n"
    ],
    [
      "b",
      "a"
    ],
    [
      "m",
      "u"
    ],
    [
      "nó",
      "i"
    ],
    [
      "s",
      "ẽ"
    ],
    [
      "chú",
      "ng"
    ],
    [
      "c",
      "a"
    ],
    [
      "ề",
      "n"
    ],
    [
      "à",
      "i"
    ],
    [
      "à",
      "n"
    ],
    [
      "s",
      "ự"
    ],
    [
      "ố",
      "i"
    ],
    [
      "và",
      "o"
    ],
    [
      "s",
      "u"
    ],
    [
      "ậ",
      "t"
    ],
    [
      "t",
      "ừ"
    ],
    [
      "ơ",
      "n"
    ],
    [
      "v",
      "iệ"
    ],
    [
      "t",
      "er"
    ],
    [
      "c",
      "o"
    ],
    [
      "ự",
      "c"
    ],
    [
      "như",
      "ng"
    ],
    [
      "í",
      "nh"
    ],
    [
      "th",
      "ế"
    ],
    [
      "l",
      "a"
    ],
    [
      "ố",
      "n"
    ],
    [
      "ha",
      "i"
    ],
    [
      "g",
      "ì"
    ],
    [
      "s",
      "t"
    ],
    [
      "đ",
      "ộ"
    ],
    [
      "ò",
      "n"
    ],
    [
      "r",
      "i"
    ],
    [
      "ch",
      "ỉ"
    ],
    [
      "ế",
      "u"
    ],
    [
      "w",
      "ith"
    ],
    [
      "c",
      "ông"
    ],
    [
      "ả",
      "n"
    ],
    [
      "ă",
      "n"
    ],
    [
      "ù",
      "ng"
    ],
    [
      "d",
      "e"
    ],
    [
      "gh",
      "t"
    ],
    [
      "việ",
      "c"
    ],
    [
      "r",
      "ồi"
    ],
    [
      "w",
      "e"
    ],
    [
      "nh",
      "à"
    ],
    [
      "k",
      "i"
    ],
    [
      "l",
      "u"
    ],
    [
      "đ",
      "ầu"
    ],
    [
      "ha",
      "d"
    ],
    [
      "nà",
      "o"
    ],
    [
      "a",
      "i"
    ],
    [
      "th",
      "ấy"
    ],
    [
      "c",
      "òn"
    ],
    [
      "ú",
      "c"
    ],
    [
      "ư",
      "a"
    ],
    [
      "bi",
      "ết"
    ],
    [
      "ậ",
      "y"
    ],
    [
      "ộ",
      "c"
    ],
    [
      "no",
      "t"
    ],
    [
      "bu",
      "t"
    ],
    [
      "đ",
      "á"
    ],
    [
      "v",
      "i"
    ],
    [
      "u",
      "ng"
    ],
    [
      "ữ",
      "a"
    ],
    [
      "ắ",
      "t"
    ],
    [
      "th",
      "ành"
    ],
    [
      "s",
      "he"
    ],
    [
      "á",
      "t"
    ],
    [
      "n",
      "e"
    ],
    [
      "a",
      "l"
    ],
    [
      "nhi",
      "ều"
    ],
    [
      "ô",
      "n"
    ],
    [
      "k",
      "e"
    ],
    [
      "á",
      "i"
    ],
    [
      "t",
      "u"
    ],
    [
      "th",
      "u"
    ],
    [
      "s",
      "i"
    ],
    [
      "ê",
      "u"
    ],
    [
      "v",
      "ì"
    ],
    [
      "tr",
      "ên"
    ],
    [
      "hi",
      "m"
    ],
    [
      "g",
      "o"
    ],
    [
      "ẫ",
      "n"
    ],
    [
      "r",
      "ằng"
    ],
    [
      "h",
      "ơn"
    ],
    [
      "á",
      "n"
    ],
    [
      "ơ",
      "i"
    ],
    [
      "à",
      "y"
    ],
    [
      "a",
      "m"
    ],
    [
      "ngh",
      "ĩ"
    ],
    [
      "b",
      "ị"
    ],
    [
      "ặ",
      "t"
    ],
    [
      "ắ",
      "c"
    ],
    [
      "v",
      "ậy"
    ],
    [
      "ụ",
      "c"
    ],
    [
      "p",
      "e"
    ],
    [
      "n",
      "ăm"
    ],
    [
      "ch",
      "uy"
    ],
    [
      "p",
      "o"
    ],
    [
      "f",
      "e"
    ],
    [
      "l",
      "ên"
    ],
    [
      "a",
      "d"
    ],
    [
      "u",
      "n"
    ],
    [
      "sa",
      "u"
    ],
    [
      "t",
      "ư"
    ],
    [
      "ổ",
      "i"
    ],
    [
      "đi",
      "ều"
    ],
    [
      "ậ",
      "p"
    ],
    [
      "ọ",
      "i"
    ],
    [
      "ồ",
      "ng"
    ],
    [
      "ỏ",
      "i"
    ],
    [
      "á",
      "o"
    ],
    [
      "gi",
      "ờ"
    ],
    [
      "qu",
      "an"
    ],
    [
      "đ",
      "ây"
    ],
    [
      "â",
      "m"
    ],
    [
      "đ",
      "ị"
    ],
    [
      "ố",
      "c"
    ],
    [
      "r",
      "ất"
    ],
    [
      "í",
      "ch"
    ],
    [
      "ch",
      "ính"
    ],
    [
      "m",
      "y"
    ],
    [
      "kh",
      "ác"
    ],
    [
      "w",
      "hi"
    ],
    [
      "n",
      "ên"
    ],
    [
      "ộ",
      "i"
    ],
    [
      "đ",
      "ang"
    ],
    [
      "c",
      "ô"
    ],
    [
      "ố",
      "t"
    ],
    [
      "x",
      "u"
    ],
    [
      "m",
      "an"
    ],
    [
      "ng",
      "ày"
    ],
    [
      "n",
      "ếu"
    ],
    [
      "ệ",
      "n"
    ],
    [
      "tr",
      "ước"
    ],
    [
      "ì",
      "n"
    ],
    [
      "f",
      "i"
    ],
    [
      "g",
      "e"
    ],
    [
      "ặ",
      "c"
    ],
    [
      "d",
      "i"
    ],
    [
      "nh",
      "ất"
    ],
    [
      "the",
      "o"
    ],
    [
      "ở",
      "ng"
    ],
    [
      "họ",
      "c"
    ],
    [
      "b",
      "y"
    ],
    [
      "c",
      "k"
    ],
    [
      "sa",
      "o"
    ],
    [
      "the",
      "y"
    ],
    [
      "m",
      "ới"
    ],
    [
      "t",
      "ự"
    ],
    [
      "m",
      "o"
    ],
    [
      "n",
      "ước"
    ],
    [
      "ạ",
      "o"
    ],
    [
      "ha",
      "ve"
    ],
    [
      "ể",
      "u"
    ],
    [
      "ứ",
      "ng"
    ],
    [
      "ou",
      "t"
    ],
    [
      "mu",
      "ốn"
    ],
    [
      "no",
      "w"
    ],
    [
      "gi",
      "a"
    ],
    [
      "ấ",
      "n"
    ],
    [
      "ro",
      "m"
    ],
    [
      "th",
      "ời"
    ],
    [
      "cu",
      "ộc"
    ],
    [
      "'",
      "s"
    ],
    [
      "b",
      "o"
    ],
    [
      "ch",
      "ị"
    ],
    [
      "whi",
      "ch"
    ],
    [
      "t",
      "y"
    ],
    [
      "m",
      "i"
    ],
    [
      "nh",
      "ân"
    ],
    [
      "s",
      "ống"
    ],
    [
      "ả",
      "o"
    ],
    [
      "w",
      "i"
    ],
    [
      "ỗ",
      "i"
    ],
    [
      "qu",
      "ân"
    ],
    [
      "độ",
      "ng"
    ],
    [
      "ể",
      "n"
    ],
    [
      "l",
      "ý"
    ],
    [
      "qu",
      "a"
    ],
    [
      "b",
      "à"
    ],
    [
      "ắ",
      "n"
    ],
    [
      "n",
      "ữa"
    ],
    [
      "c",
      "ùng"
    ],
    [
      "ế",
      "p"
    ],
    [
      "nh",
      "ận"
    ],
    [
      "ọ",
      "ng"
    ],
    [
      "f",
      "rom"
    ],
    [
      "đị",
      "nh"
    ],
    [
      "w",
      "ho"
    ],
    [
      "ê",
      "m"
    ],
    [
      "th",
      "ực"
    ],
    [
      "m",
      "ươi"
    ],
    [
      "cả",
      "m"
    ],
    [
      "h",
      "àng"
    ],
    [
      "t",
      "ại"
    ],
    [
      "l",
      "úc"
    ],
    [
      "t",
      "ới"
    ],
    [
      "s",
      "ố"
    ],
    [
      "v",
      "ẫn"
    ],
    [
      "c",
      "ứ"
    ],
    [
      "l",
      "ớ"
    ],
    [
      "chuy",
      "ện"
    ],
    [
      "t",
      "e"
    ],
    [
      "th",
      "ứ"
    ],
    [
      "ẳ",
      "ng"
    ],
    [
      "ừ",
      "ng"
    ],
    [
      "m",
      "ặt"
    ],
    [
      "ng",
      "uy"
    ],
    [
      "b",
      "ằng"
    ],
    [
      "e",
      "x"
    ],
    [
      "m",
      "ọi"
    ],
    [
      "ấ",
      "p"
    ],
    [
      "ạ",
      "t"
    ],
    [
      "ể",
      "m"
    ],
    [
      "m",
      "a"
    ],
    [
      "ồ",
      "n"
    ],
    [
      "á",
      "m"
    ],
    [
      "ử",
      "a"
    ],
    [
      "t",
      "âm"
    ],
    [
      "ver",
      "y"
    ],
    [
      "w",
      "n"
    ],
    [
      "nh",
      "ìn"
    ],
    [
      "ấ",
      "u"
    ],
    [
      "ậ",
      "u"
    ],
    [
      "ú",
      "ng"
    ],
    [
      "f",
      "u"
    ],
    [
      "đ",
      "ồng"
    ],
    [
      "b",
      "le"
    ],
    [
      "ch",
      "í"
    ],
    [
      "n",
      "i"
    ],
    [
      "ầ",
      "m"
    ],
    [
      "tr",
      "ăm"
    ],
    [
      "ả",
      "y"
    ],
    [
      "i",
      "r"
    ],
    [
      "ừ",
      "a"
    ],
    [
      "se",
      "l"
    ],
    [
      "tr",
      "ở"
    ],
    [
      "nha",
      "u"
    ],
    [
      "đ",
      "âu"
    ],
    [
      "c",
      "ần"
    ],
    [
      "đ",
      "ối"
    ],
    [
      "qu",
      "á"
    ],
    [
      "b",
      "ản"
    ],
    [
      "ì",
      "m"
    ],
    [
      "b",
      "ên"
    ],
    [
      "t",
      "s"
    ],
    [
      "h",
      "ỏi"
    ],
    [
      "c",
      "ơ"
    ],
    [
      "lớ",
      "n"
    ],
    [
      "w",
      "hen"
    ],
    [
      "đ",
      "ều"
    ],
    [
      "o",
      "d"
    ],
    [
      "h",
      "ã"
    ],
    [
      "ti",
      "ền"
    ],
    [
      "so",
      "me"
    ],
    [
      "đ",
      "ường"
    ],
    [
      "á",
      "p"
    ],
    [
      "tr",
      "ung"
    ],
    [
      "th",
      "ường"
    ],
    [
      "th",
      "ật"
    ],
    [
      "n",
      "ay"
    ],
    [
      "ắ",
      "m"
    ],
    [
      "w",
      "ou"
    ],
    [
      "ba",
      "o"
    ],
    [
      "wou",
      "ld"
    ],
    [
      "t",
      "ình"
    ],
    [
      "w",
      "or"
    ],
    [
      "th",
      "ân"
    ],
    [
      "u",
      "p"
    ],
    [
      "nhi",
      "ên"
    ],
    [
      "w",
      "hat"
    ],
    [
      "b",
      "ắt"
    ],
    [
      "i",
      "f"
    ],
    [
      "w",
      "ay"
    ],
    [
      "tr",
      "ường"
    ],
    [
      "ầ",
      "y"
    ],
    [
      "a",
      "c"
    ],
    [
      "l",
      "ời"
    ],
    [
      "h",
      "ết"
    ],
    [
      "ch",
      "ưa"
    ],
    [
      "t",
      "ìm"
    ],
    [
      "h",
      "u"
    ],
    [
      "đ",
      "ại"
    ],
    [
      "b",
      "ộ"
    ],
    [
      "ụ",
      "ng"
    ],
    [
      "t",
      "ất"
    ],
    [
      "ở",
      "i"
    ],
    [
      "a",
      "u"
    ],
    [
      "n",
      "ăng"
    ],
    [
      "ợ",
      "i"
    ],
    [
      "á",
      "u"
    ],
    [
      "v",
      "u"
    ],
    [
      "c",
      "âu"
    ],
    [
      "m",
      "ẹ"
    ],
    [
      "ượ",
      "ng"
    ],
    [
      "h",
      "ành"
    ],
    [
      "ti",
      "ếng"
    ],
    [
      "ạ",
      "c"
    ],
    [
      "kh",
      "ó"
    ],
    [
      "ph",
      "ần"
    ],
    [
      "đ",
      "o"
    ],
    [
      "th",
      "ôi"
    ],
    [
      "h",
      "ình"
    ],
    [
      "w",
      "o"
    ],
    [
      "l",
      "ần"
    ],
    [
      "ễ",
      "n"
    ],
    [
      "v",
      "ị"
    ],
    [
      "ti",
      "ếp"
    ],
    [
      "the",
      "ir"
    ],
    [
      "ar",
      "d"
    ],
    [
      "lu",
      "ôn"
    ],
    [
      "wi",
      "ll"
    ],
    [
      "g",
      "re"
    ],
    [
      "b",
      "ảo"
    ],
    [
      "'",
      "t"
    ],
    [
      "b",
      "ất"
    ],
    [
      "gi",
      "ới"
    ],
    [
      "hi",
      "ểu"
    ],
    [
      "ca",
      "o"
    ],
    [
      "t",
      "ốt"
    ],
    [
      "qu",
      "ốc"
    ],
    [
      "be",
      "en"
    ],
    [
      "ch",
      "ủ"
    ],
    [
      "co",
      "m"
    ],
    [
      "ti",
      "on"
    ],
    [
      "l",
      "ấy"
    ],
    [
      "m",
      "ười"
    ],
    [
      "ư",
      "ởng"
    ],
    [
      "t",
      "le"
    ],
    [
      "ị",
      "ch"
    ],
    [
      "ch",
      "ẳng"
    ],
    [
      "ạ",
      "y"
    ],
    [
      "ó",
      "ng"
    ],
    [
      "đ",
      "ề"
    ],
    [
      "gi",
      "á"
    ],
    [
      "nghĩ",
      "a"
    ],
    [
      "chi",
      "ến"
    ],
    [
      "a",
      "f"
    ],
    [
      "r",
      "u"
    ],
    [
      "đ",
      "ời"
    ],
    [
      "ph",
      "át"
    ],
    [
      "to",
      "àn"
    ],
    [
      "sel",
      "f"
    ],
    [
      "p",
      "u"
    ],
    [
      "h",
      "ội"
    ],
    [
      "đ",
      "ất"
    ],
    [
      "xu",
      "ống"
    ],
    [
      "v",
      "ừa"
    ],
    [
      "c",
      "i"
    ],
    [
      "p",
      "ro"
    ],
    [
      "ngo",
      "ài"
    ],
    [
      "hã",
      "y"
    ],
    [
      "t",
      "ính"
    ],
    [
      "tr",
      "ị"
    ],
    [
      "tr",
      "ọng"
    ],
    [
      "you",
      "r"
    ],
    [
      "an",
      "y"
    ],
    [
      "đ",
      "úng"
    ],
    [
      "ặ",
      "p"
    ],
    [
      "ợ",
      "p"
    ],
    [
      "o",
      "k"
    ],
    [
      "b",
      "ỏ"
    ],
    [
      "e",
      "t"
    ],
    [
      "v",
      "ô"
    ],
    [
      "ph",
      "í"
    ],
    [
      "ô",
      "m"
    ],
    [
      "l",
      "ực"
    ],
    [
      "h",
      "ợp"
    ],
    [
      "y",
      "êu"
    ],
    [
      "à",
      "o"
    ],
    [
      "gi",
      "ải"
    ],
    [
      "th",
      "ông"
    ],
    [
      "cou",
      "ld"
    ],
    [
      "đi",
      "ểm"
    ],
    [
      "ế",
      "c"
    ],
    [
      "đ",
      "ưa"
    ],
    [
      "vi",
      "ên"
    ],
    [
      "ou",
      "r"
    ],
    [
      "d",
      "ụng"
    ],
    [
      "c",
      "ổ"
    ],
    [
      "d",
      "ân"
    ],
    [
      "v",
      "ăn"
    ],
    [
      "ho",
      "ặc"
    ],
    [
      "b",
      "ởi"
    ],
    [
      "d",
      "u"
    ],
    [
      "ế",
      "m"
    ],
    [
      "t",
      "ử"
    ],
    [
      "ọ",
      "c"
    ],
    [
      "m",
      "ỗi"
    ],
    [
      "x",
      "em"
    ],
    [
      "k",
      "ỳ"
    ],
    [
      "th",
      "ương"
    ],
    [
      "ú",
      "p"
    ],
    [
      "d",
      "ự"
    ],
    [
      "k",
      "ết"
    ],
    [
      "l",
      "òng"
    ],
    [
      "th",
      "ị"
    ],
    [
      "ứ",
      "a"
    ],
    [
      "qu",
      "ả"
    ],
    [
      "n",
      "ơi"
    ],
    [
      "c",
      "ậu"
    ],
    [
      "s",
      "áng"
    ],
    [
      "ti",
      "ên"
    ],
    [
      "m",
      "ắt"
    ],
    [
      "ó",
      "c"
    ],
    [
      "ng",
      "ay"
    ],
    [
      "t",
      "ài"
    ],
    [
      "th",
      "ần"
    ],
    [
      "x",
      "in"
    ],
    [
      "d",
      "ay"
    ],
    [
      "ú",
      "t"
    ],
    [
      "t",
      "ạo"
    ],
    [
      "th",
      "ích"
    ],
    [
      "é",
      "t"
    ],
    [
      "é",
      "p"
    ],
    [
      "ẩ",
      "n"
    ],
    [
      "in",
      "to"
    ],
    [
      "b",
      "ốn"
    ],
    [
      "m",
      "ấy"
    ],
    [
      "a",
      "p"
    ],
    [
      "ch",
      "ân"
    ],
    [
      "b",
      "ình"
    ],
    [
      "b",
      "ây"
    ],
    [
      "t",
      "ổ"
    ],
    [
      "g",
      "ọi"
    ],
    [
      "t",
      "ên"
    ],
    [
      "quy",
      "ết"
    ],
    [
      "ộ",
      "ng"
    ],
    [
      "a",
      "g"
    ],
    [
      "lit",
      "tle"
    ],
    [
      "s",
      "ử"
    ],
    [
      "í",
      "t"
    ],
    [
      "c",
      "ầu"
    ],
    [
      "th",
      "ủ"
    ],
    [
      "s",
      "ĩ"
    ],
    [
      "ho",
      "àn"
    ],
    [
      "l",
      "ã"
    ],
    [
      "li",
      "ke"
    ],
    [
      "gi",
      "úp"
    ],
    [
      "n",
      "am"
    ],
    [
      "nh",
      "ỏ"
    ],
    [
      "h",
      "ôm"
    ],
    [
      "ou",
      "s"
    ],
    [
      "ọ",
      "n"
    ],
    [
      "p",
      "le"
    ],
    [
      "m",
      "ất"
    ],
    [
      "ph",
      "òng"
    ],
    [
      "v",
      "ật"
    ],
    [
      "r",
      "y"
    ],
    [
      "gi",
      "ả"
    ],
    [
      "c",
      "ố"
    ],
    [
      "g",
      "ặp"
    ],
    [
      "v",
      "ấn"
    ],
    [
      "th",
      "ái"
    ],
    [
      "gi",
      "ữa"
    ],
    [
      "s",
      "ản"
    ],
    [
      "o",
      "ther"
    ],
    [
      "t",
      "ập"
    ],
    [
      "ắ",
      "p"
    ],
    [
      "j",
      "u"
    ],
    [
      "d",
      "ù"
    ],
    [
      "t",
      "ế"
    ],
    [
      "ti",
      "me"
    ],
    [
      "ằ",
      "m"
    ],
    [
      "c",
      "t"
    ],
    [
      "i",
      "m"
    ],
    [
      "k",
      "now"
    ],
    [
      "x",
      "e"
    ],
    [
      "tr",
      "ời"
    ],
    [
      "c",
      "ửa"
    ],
    [
      "tr",
      "ả"
    ],
    [
      "m",
      "á"
    ],
    [
      "h",
      "ệ"
    ],
    [
      "tr",
      "í"
    ],
    [
      "chi",
      "ếc"
    ],
    [
      "s",
      "ức"
    ],
    [
      "ch",
      "ứ"
    ],
    [
      "a",
      "bout"
    ],
    [
      "ph",
      "ương"
    ],
    [
      "ấ",
      "m"
    ],
    [
      "s",
      "p"
    ],
    [
      "ch",
      "ắc"
    ],
    [
      "li",
      "ên"
    ],
    [
      "ẩ",
      "m"
    ],
    [
      "se",
      "e"
    ],
    [
      "d",
      "s"
    ],
    [
      "ướ",
      "ng"
    ],
    [
      "tr",
      "ình"
    ],
    [
      "ng",
      "ồi"
    ],
    [
      "phí",
      "a"
    ],
    [
      "b",
      "ệnh"
    ],
    [
      "ph",
      "áp"
    ],
    [
      "l",
      "ượng"
    ],
    [
      "ti",
      "êu"
    ],
    [
      "ặ",
      "ng"
    ],
    [
      "đ",
      "ạo"
    ],
    [
      "m",
      "ạnh"
    ],
    [
      "g",
      "ần"
    ],
    [
      "ch",
      "ạy"
    ],
    [
      "đ",
      "ứng"
    ],
    [
      "c",
      "àng"
    ],
    [
      "l",
      "ợi"
    ],
    [
      "đ",
      "ấy"
    ],
    [
      "xu",
      "ất"
    ],
    [
      "chí",
      "n"
    ],
    [
      "we",
      "ll"
    ],
    [
      "f",
      "o"
    ],
    [
      "th",
      "êm"
    ],
    [
      "ki",
      "a"
    ],
    [
      "đ",
      "ổi"
    ],
    [
      "s",
      "ợ"
    ],
    [
      "ho",
      "w"
    ],
    [
      "on",
      "ly"
    ],
    [
      "o",
      "ver"
    ],
    [
      "l",
      "ập"
    ],
    [
      "x",
      "a"
    ],
    [
      "ạ",
      "m"
    ],
    [
      "nguy",
      "ên"
    ],
    [
      "s",
      "ách"
    ],
    [
      "đ",
      "ủ"
    ],
    [
      "r",
      "õ"
    ],
    [
      "af",
      "ter"
    ],
    [
      "e",
      "ar"
    ],
    [
      "b",
      "ác"
    ],
    [
      "p",
      "ar"
    ],
    [
      "b",
      "án"
    ],
    [
      "s",
      "hou"
    ],
    [
      "ag",
      "ain"
    ],
    [
      "biệ",
      "t"
    ],
    [
      "ẹ",
      "p"
    ],
    [
      "ngh",
      "ìn"
    ],
    [
      "ề",
      "m"
    ],
    [
      "ch",
      "ỗ"
    ],
    [
      "chị",
      "u"
    ],
    [
      "đ",
      "ình"
    ],
    [
      "đ",
      "em"
    ],
    [
      "v",
      "ụ"
    ],
    [
      "u",
      "s"
    ],
    [
      "l",
      "ắm"
    ],
    [
      "ư",
      "u"
    ],
    [
      "b",
      "é"
    ],
    [
      "th",
      "áng"
    ],
    [
      "m",
      "ã"
    ],
    [
      "ti",
      "ến"
    ],
    [
      "t",
      "ác"
    ],
    [
      "w",
      "here"
    ],
    [
      "y",
      "es"
    ],
    [
      "d",
      "ưới"
    ],
    [
      "đ",
      "ồ"
    ],
    [
      "p",
      "i"
    ],
    [
      "men",
      "t"
    ],
    [
      "quy",
      "ền"
    ],
    [
      "nghiệ",
      "p"
    ],
    [
      "l",
      "ẽ"
    ],
    [
      "ệ",
      "t"
    ],
    [
      "go",
      "od"
    ],
    [
      "k",
      "ể"
    ],
    [
      "th",
      "ằng"
    ],
    [
      "đ",
      "ông"
    ],
    [
      "h",
      "y"
    ],
    [
      "k",
      "ẻ"
    ],
    [
      "tr",
      "ẻ"
    ],
    [
      "l",
      "âu"
    ],
    [
      "b",
      "áo"
    ],
    [
      "ó",
      "a"
    ],
    [
      "đ",
      "ức"
    ],
    [
      "m",
      "ục"
    ],
    [
      "mu",
      "a"
    ],
    [
      "nh",
      "ớ"
    ],
    [
      "cu",
      "ối"
    ],
    [
      "do",
      "wn"
    ],
    [
      "ư",
      "ng"
    ],
    [
      "c",
      "ây"
    ],
    [
      "ch",
      "ất"
    ],
    [
      "gi",
      "ữ"
    ],
    [
      "lo",
      "ại"
    ],
    [
      "shou",
      "ld"
    ],
    [
      "s",
      "áu"
    ],
    [
      "be",
      "fore"
    ],
    [
      "e",
      "l"
    ],
    [
      "đ",
      "àn"
    ],
    [
      "vu",
      "a"
    ],
    [
      "đ",
      "ặt"
    ],
    [
      "t",
      "wo"
    ],
    [
      "b",
      "ước"
    ],
    [
      "t",
      "ám"
    ],
    [
      "d",
      "ẫn"
    ],
    [
      "khi",
      "ến"
    ],
    [
      "gre",
      "at"
    ],
    [
      "ne",
      "w"
    ],
    [
      "d",
      "ài"
    ],
    [
      "hiệ",
      "u"
    ],
    [
      "ch",
      "ơi"
    ],
    [
      "é",
      "o"
    ],
    [
      "v",
      "o"
    ],
    [
      "ph",
      "ụ"
    ],
    [
      "j",
      "o"
    ],
    [
      "t",
      "ây"
    ],
    [
      "th",
      "ống"
    ],
    [
      "e",
      "very"
    ],
    [
      "kh",
      "ả"
    ],
    [
      "ậ",
      "m"
    ],
    [
      "gi",
      "ống"
    ],
    [
      "g",
      "u"
    ],
    [
      "mo",
      "st"
    ],
    [
      "m",
      "ỹ"
    ],
    [
      "ne",
      "ver"
    ],
    [
      "à",
      "u"
    ],
    [
      "ho",
      "a"
    ],
    [
      "ú",
      "i"
    ],
    [
      "h",
      "óa"
    ],
    [
      "kh",
      "ổ"
    ],
    [
      "đ",
      "ứa"
    ],
    [
      "vi",
      "ết"
    ],
    [
      "x",
      "ác"
    ],
    [
      "t",
      "ối"
    ],
    [
      "ự",
      "a"
    ],
    [
      "thi",
      "ên"
    ],
    [
      "đ",
      "ơn"
    ],
    [
      "t",
      "ục"
    ],
    [
      "n",
      "ằm"
    ],
    [
      "n",
      "ổi"
    ],
    [
      "v",
      "ương"
    ],
    [
      "o",
      "ld"
    ],
    [
      "ỉ",
      "nh"
    ],
    [
      "d",
      "ễ"
    ],
    [
      "t",
      "ăng"
    ],
    [
      "c",
      "ụ"
    ],
    [
      "đ",
      "ôi"
    ],
    [
      "t",
      "ly"
    ],
    [
      "s",
      "ở"
    ],
    [
      "v",
      "ũ"
    ],
    [
      "ki",
      "ến"
    ],
    [
      "thi",
      "ết"
    ],
    [
      "c",
      "ười"
    ],
    [
      "t",
      "ức"
    ],
    [
      "s",
      "át"
    ],
    [
      "b",
      "ảy"
    ],
    [
      "mu",
      "ch"
    ],
    [
      "đ",
      "ừng"
    ],
    [
      "chú",
      "a"
    ],
    [
      "vu",
      "i"
    ],
    [
      "m",
      "ở"
    ],
    [
      "fu",
      "l"
    ],
    [
      "v",
      "ẻ"
    ],
    [
      "b",
      "ố"
    ],
    [
      "tu",
      "ổi"
    ],
    [
      "bi",
      "ến"
    ],
    [
      "su",
      "ch"
    ],
    [
      "cứ",
      "u"
    ],
    [
      "m",
      "ặc"
    ],
    [
      "c",
      "ấp"
    ],
    [
      "đ",
      "êm"
    ],
    [
      "un",
      "der"
    ],
    [
      "h",
      "ắn"
    ],
    [
      "b",
      "óng"
    ],
    [
      "ki",
      "ếm"
    ],
    [
      "ĩ",
      "nh"
    ],
    [
      "nguy",
      "ễn"
    ],
    [
      "re",
      "ad"
    ],
    [
      "đ",
      "ặc"
    ],
    [
      "qu",
      "en"
    ],
    [
      "h",
      "ướng"
    ],
    [
      "do",
      "anh"
    ],
    [
      "g",
      "ái"
    ],
    [
      "đ",
      "ẹp"
    ],
    [
      "wen",
      "t"
    ],
    [
      "n",
      "ữ"
    ],
    [
      "v",
      "ợ"
    ],
    [
      "má",
      "y"
    ],
    [
      "chuy",
      "ển"
    ],
    [
      "h",
      "ồi"
    ],
    [
      "e",
      "p"
    ],
    [
      "thu",
      "ộc"
    ],
    [
      "ph",
      "ẩm"
    ],
    [
      "th",
      "ầy"
    ],
    [
      "x",
      "ã"
    ],
    [
      "v",
      "ọng"
    ],
    [
      "th",
      "ư"
    ],
    [
      "đ",
      "ầy"
    ],
    [
      "x",
      "ong"
    ],
    [
      "m",
      "ức"
    ],
    [
      "truy",
      "ền"
    ],
    [
      "an",
      "s"
    ],
    [
      "gia",
      "o"
    ],
    [
      "fir",
      "st"
    ],
    [
      "him",
      "self"
    ],
    [
      "tr",
      "ái"
    ],
    [
      "nghiệ",
      "m"
    ],
    [
      "x",
      "ảy"
    ],
    [
      "ng",
      "a"
    ],
    [
      "ph",
      "úc"
    ],
    [
      "tu",
      "r"
    ],
    [
      "m",
      "ù"
    ],
    [
      "đị",
      "a"
    ],
    [
      "t",
      "ôn"
    ],
    [
      "nes",
      "s"
    ],
    [
      "ó",
      "m"
    ],
    [
      "n",
      "u"
    ],
    [
      "c",
      "ạnh"
    ],
    [
      "l",
      "ạ"
    ],
    [
      "đ",
      "ọc"
    ],
    [
      "liệ",
      "u"
    ],
    [
      "kh",
      "í"
    ],
    [
      "đ",
      "au"
    ],
    [
      "thou",
      "ght"
    ],
    [
      "kho",
      "ảng"
    ],
    [
      "thin",
      "k"
    ],
    [
      "y",
      "ếu"
    ],
    [
      "h",
      "ầu"
    ],
    [
      "tr",
      "ò"
    ],
    [
      "i",
      "'"
    ],
    [
      "đ",
      "ấu"
    ],
    [
      "an",
      "t"
    ],
    [
      "f",
      "ri"
    ],
    [
      "ph",
      "ân"
    ],
    [
      "lu",
      "ận"
    ],
    [
      "tr",
      "ận"
    ],
    [
      "è",
      "n"
    ],
    [
      "d",
      "a"
    ],
    [
      "ro",
      "w"
    ],
    [
      "k",
      "ế"
    ],
    [
      "ph",
      "ản"
    ],
    [
      "tri",
      "ển"
    ],
    [
      "to",
      "o"
    ],
    [
      "di",
      "ễn"
    ],
    [
      "t",
      "ích"
    ],
    [
      "đ",
      "u"
    ],
    [
      "đ",
      "ạt"
    ],
    [
      "a",
      "way"
    ],
    [
      "rou",
      "gh"
    ],
    [
      "e",
      "ven"
    ],
    [
      "o",
      "m"
    ],
    [
      "ò",
      "a"
    ],
    [
      "ng",
      "ài"
    ],
    [
      "ng",
      "ủ"
    ],
    [
      "co",
      "i"
    ],
    [
      "c",
      "ực"
    ],
    [
      "ch",
      "ế"
    ],
    [
      "p",
      "as"
    ],
    [
      "ph",
      "ủ"
    ],
    [
      "ượ",
      "t"
    ],
    [
      "o",
      "wn"
    ],
    [
      "tr",
      "ưởng"
    ],
    [
      "e",
      "f"
    ],
    [
      "ni",
      "ght"
    ],
    [
      "u",
      "ống"
    ],
    [
      "n",
      "ội"
    ],
    [
      "thuy",
      "ết"
    ],
    [
      "chi",
      "a"
    ],
    [
      "t",
      "ội"
    ],
    [
      "ư",
      "ỡ"
    ],
    [
      "c",
      "lo"
    ],
    [
      "ph",
      "ố"
    ],
    [
      "ch",
      "âu"
    ],
    [
      "n",
      "'t"
    ],
    [
      "ó",
      "i"
    ],
    [
      "re",
      "e"
    ],
    [
      "ri",
      "ed"
    ],
    [
      "ph",
      "á"
    ],
    [
      "mi",
      "ght"
    ],
    [
      "h",
      "ạn"
    ],
    [
      "h",
      "ạ"
    ],
    [
      "en",
      "d"
    ],
    [
      "he",
      "ad"
    ],
    [
      "h",
      "ưởng"
    ],
    [
      "j",
      "e"
    ],
    [
      "n",
      "ỗi"
    ],
    [
      "ẩ",
      "y"
    ],
    [
      "si",
      "on"
    ],
    [
      "d",
      "ạ"
    ],
    [
      "k",
      "éo"
    ],
    [
      "ri",
      "êng"
    ],
    [
      "triệ",
      "u"
    ],
    [
      "th",
      "rough"
    ],
    [
      "v",
      "ùng"
    ],
    [
      "s",
      "hall"
    ],
    [
      "li",
      "ền"
    ],
    [
      "thou",
      "gh"
    ],
    [
      "l",
      "ịch"
    ],
    [
      "g",
      "a"
    ],
    [
      "b",
      "ọn"
    ],
    [
      "đo",
      "ạn"
    ],
    [
      "h",
      "ồ"
    ],
    [
      "d",
      "ịch"
    ],
    [
      "o",
      "b"
    ],
    [
      "đo",
      "àn"
    ],
    [
      "nh",
      "ờ"
    ],
    [
      "ma",
      "ke"
    ],
    [
      "f",
      "ace"
    ],
    [
      "whi",
      "le"
    ],
    [
      "h",
      "à"
    ],
    [
      "b",
      "ắc"
    ],
    [
      "ho",
      "ạt"
    ],
    [
      "e",
      "yes"
    ],
    [
      "ta",
      "ke"
    ],
    [
      "ta",
      "o"
    ],
    [
      "ữ",
      "u"
    ],
    [
      "ri",
      "ght"
    ],
    [
      "th",
      "ất"
    ],
    [
      "h",
      "ữu"
    ],
    [
      "tr",
      "ông"
    ],
    [
      "h",
      "ộ"
    ],
    [
      "ch",
      "áu"
    ],
    [
      "ro",
      "om"
    ],
    [
      "sti",
      "ll"
    ],
    [
      "t",
      "í"
    ],
    [
      "qu",
      "ý"
    ],
    [
      "of",
      "f"
    ],
    [
      "g",
      "ây"
    ],
    [
      "h",
      "ậu"
    ],
    [
      "a",
      "k"
    ],
    [
      "thi",
      "ếu"
    ],
    [
      "ki",
      "ểm"
    ],
    [
      "s",
      "âu"
    ],
    [
      "be",
      "ing"
    ],
    [
      "thu",
      "ật"
    ],
    [
      "ph",
      "ép"
    ],
    [
      "bu",
      "ổi"
    ],
    [
      "k",
      "ỷ"
    ],
    [
      "lu",
      "ật"
    ],
    [
      "y",
      "ên"
    ],
    [
      "thu",
      "ốc"
    ],
    [
      "v",
      "ốn"
    ],
    [
      "lã",
      "o"
    ],
    [
      "v",
      "ực"
    ],
    [
      "m",
      "ối"
    ],
    [
      "s",
      "ư"
    ],
    [
      "ã",
      "i"
    ],
    [
      "f",
      "ather"
    ],
    [
      "w",
      "ard"
    ],
    [
      "su",
      "ốt"
    ],
    [
      "tho",
      "se"
    ],
    [
      "k",
      "ỹ"
    ],
    [
      "ả",
      "m"
    ],
    [
      "d",
      "ành"
    ],
    [
      "d",
      "ần"
    ],
    [
      "go",
      "t"
    ],
    [
      "tổ",
      "ng"
    ],
    [
      "h",
      "ơi"
    ],
    [
      "p",
      "rin"
    ],
    [
      "t",
      "ấn"
    ],
    [
      "nhiệ",
      "m"
    ],
    [
      "ó",
      "n"
    ],
    [
      "e",
      "ver"
    ],
    [
      "l",
      "ỗi"
    ],
    [
      "v",
      "ệ"
    ],
    [
      "è",
      "o"
    ],
    [
      "c",
      "ăn"
    ],
    [
      "s",
      "ơn"
    ],
    [
      "th",
      "ử"
    ],
    [
      "s",
      "ông"
    ],
    [
      "l",
      "ệ"
    ],
    [
      "on",
      "ce"
    ],
    [
      "li",
      "ght"
    ],
    [
      "gi",
      "ết"
    ],
    [
      "ch",
      "ấp"
    ],
    [
      "sa",
      "w"
    ],
    [
      "v",
      "òng"
    ],
    [
      "a",
      "ble"
    ],
    [
      "lo",
      "ok"
    ],
    [
      "pu",
      "t"
    ],
    [
      "x",
      "úc"
    ],
    [
      "r",
      "ộng"
    ],
    [
      "kh",
      "ăn"
    ],
    [
      "f",
      "ar"
    ],
    [
      "v",
      "ai"
    ],
    [
      "roun",
      "d"
    ],
    [
      "bi",
      "ểu"
    ],
    [
      "y",
      "ear"
    ],
    [
      "đ",
      "ô"
    ],
    [
      "h",
      "ả"
    ],
    [
      "s",
      "ắp"
    ],
    [
      "đ",
      "a"
    ],
    [
      "nh",
      "ập"
    ],
    [
      "r",
      "ượ"
    ],
    [
      "rượ",
      "u"
    ],
    [
      "niệ",
      "m"
    ],
    [
      "v",
      "õ"
    ],
    [
      "dự",
      "ng"
    ],
    [
      "ch",
      "ương"
    ],
    [
      "nh",
      "ật"
    ],
    [
      "mis",
      "sus"
    ],
    [
      "n",
      "ền"
    ],
    [
      "th",
      "ậm"
    ],
    [
      "ụ",
      "i"
    ],
    [
      "m",
      "ạng"
    ],
    [
      "tr",
      "ần"
    ],
    [
      "way",
      "s"
    ],
    [
      "pe",
      "o"
    ],
    [
      "t",
      "ỉnh"
    ],
    [
      "y",
      "et"
    ],
    [
      "x",
      "ét"
    ],
    [
      "k",
      "s"
    ],
    [
      "ử",
      "i"
    ],
    [
      "tr",
      "ạng"
    ],
    [
      "chi",
      "ld"
    ],
    [
      "d",
      "ương"
    ],
    [
      "p",
      "lace"
    ],
    [
      "d",
      "ậy"
    ],
    [
      "nhi",
      "êu"
    ],
    [
      "t",
      "ận"
    ],
    [
      "peo",
      "ple"
    ],
    [
      "ò",
      "i"
    ],
    [
      "th",
      "úc"
    ],
    [
      "ngu",
      "ồn"
    ],
    [
      "ch",
      "ờ"
    ],
    [
      "th",
      "ú"
    ],
    [
      "l",
      "ộ"
    ],
    [
      "d",
      "ám"
    ],
    [
      "ti",
      "ết"
    ],
    [
      "ẫ",
      "u"
    ],
    [
      "lef",
      "t"
    ],
    [
      "gi",
      "ve"
    ],
    [
      "as",
      "ked"
    ],
    [
      "nh",
      "óm"
    ],
    [
      "qu",
      "i"
    ],
    [
      "g",
      "ắng"
    ],
    [
      "ng",
      "ôi"
    ],
    [
      "foun",
      "d"
    ],
    [
      "w",
      "ar"
    ],
    [
      "ẵ",
      "n"
    ],
    [
      "chi",
      "ều"
    ],
    [
      "x",
      "ưa"
    ],
    [
      "ủ",
      "ng"
    ],
    [
      "c",
      "ầm"
    ],
    [
      "l",
      "ính"
    ],
    [
      "lo",
      "ve"
    ],
    [
      "h",
      "òa"
    ],
    [
      "n",
      "úi"
    ],
    [
      "bu",
      "ồn"
    ],
    [
      "l",
      "ăm"
    ],
    [
      "lã",
      "nh"
    ],
    [
      "t",
      "àu"
    ],
    [
      "th",
      "ẳng"
    ],
    [
      "p",
      "res"
    ],
    [
      "b",
      "ạc"
    ],
    [
      "do",
      "or"
    ],
    [
      "po",
      "s"
    ],
    [
      "ng",
      "ờ"
    ],
    [
      "tuy",
      "ệt"
    ],
    [
      "tr",
      "ách"
    ],
    [
      "é",
      "m"
    ],
    [
      "ứ",
      "t"
    ],
    [
      "x",
      "ây"
    ],
    [
      "n",
      "ặng"
    ],
    [
      "c",
      "ộng"
    ],
    [
      "l",
      "ưu"
    ],
    [
      "đ",
      "ợi"
    ],
    [
      "đ",
      "en"
    ],
    [
      "w",
      "s"
    ],
    [
      "t",
      "ồn"
    ],
    [
      "ó",
      "t"
    ],
    [
      "ớ",
      "m"
    ],
    [
      "s",
      "ẵn"
    ],
    [
      "kh",
      "ắc"
    ],
    [
      "chu",
      "ẩn"
    ],
    [
      "ngo",
      "ại"
    ],
    [
      "b",
      "ức"
    ],
    [
      "ị",
      "p"
    ],
    [
      "ẳ",
      "n"
    ],
    [
      "ch",
      "ữ"
    ],
    [
      "les",
      "s"
    ],
    [
      "ặ",
      "n"
    ],
    [
      "gi",
      "à"
    ],
    [
      "lớ",
      "p"
    ],
    [
      "w",
      "hy"
    ],
    [
      "h",
      "ẳn"
    ],
    [
      "s",
      "ắc"
    ],
    [
      "la",
      "o"
    ],
    [
      "th",
      "ree"
    ],
    [
      "d",
      "ụ"
    ],
    [
      "x",
      "ử"
    ],
    [
      "t",
      "ù"
    ],
    [
      "đ",
      "ích"
    ],
    [
      "ưỡ",
      "ng"
    ],
    [
      "com",
      "p"
    ],
    [
      "qu",
      "ần"
    ],
    [
      "r",
      "àng"
    ],
    [
      "ki",
      "ểu"
    ],
    [
      "kh",
      "á"
    ],
    [
      "ạ",
      "p"
    ],
    [
      "cu",
      "ốn"
    ],
    [
      "l",
      "ương"
    ],
    [
      "go",
      "ing"
    ],
    [
      "min",
      "d"
    ],
    [
      "c",
      "ử"
    ],
    [
      "tu",
      "ần"
    ],
    [
      "đ",
      "ế"
    ],
    [
      "tr",
      "ợ"
    ],
    [
      "s",
      "ho"
    ],
    [
      "đ",
      "ổ"
    ],
    [
      "o",
      "h"
    ],
    [
      "đ",
      "ỏ"
    ],
    [
      "v",
      "ận"
    ],
    [
      "n",
      "ắm"
    ],
    [
      "t",
      "ố"
    ],
    [
      "tr",
      "ắng"
    ],
    [
      "ọ",
      "t"
    ],
    [
      "bi",
      "ển"
    ],
    [
      "al",
      "ways"
    ],
    [
      "a",
      "b"
    ],
    [
      "t",
      "ỏ"
    ],
    [
      "ng",
      "àn"
    ],
    [
      "ni",
      "ềm"
    ],
    [
      "thing",
      "s"
    ],
    [
      "l",
      "ễ"
    ],
    [
      "l",
      "ựa"
    ],
    [
      "m",
      "ời"
    ],
    [
      "wor",
      "ld"
    ],
    [
      "thuy",
      "ền"
    ],
    [
      "d",
      "òng"
    ],
    [
      "ch",
      "ống"
    ],
    [
      "v",
      "ượt"
    ],
    [
      "wor",
      "k"
    ],
    [
      "k",
      "new"
    ],
    [
      "gi",
      "ấy"
    ],
    [
      "su",
      "r"
    ],
    [
      "đo",
      "án"
    ],
    [
      "vo",
      "i"
    ],
    [
      "tho",
      "át"
    ],
    [
      "ph",
      "út"
    ],
    [
      "l",
      "á"
    ],
    [
      "v",
      "í"
    ],
    [
      "k",
      "ý"
    ],
    [
      "c",
      "y"
    ],
    [
      "x",
      "ấu"
    ],
    [
      "hi",
      "ểm"
    ],
    [
      "w",
      "ater"
    ],
    [
      "m",
      "ôn"
    ],
    [
      "nghi",
      "ên"
    ],
    [
      "po",
      "in"
    ],
    [
      "th",
      "ơ"
    ],
    [
      "m",
      "s"
    ],
    [
      "tr",
      "ánh"
    ],
    [
      "be",
      "cause"
    ],
    [
      "f",
      "lo"
    ],
    [
      "l",
      "ửa"
    ],
    [
      "bo",
      "y"
    ],
    [
      "l",
      "ắng"
    ],
    [
      "p",
      "re"
    ],
    [
      "b",
      "ại"
    ],
    [
      "tr",
      "ực"
    ],
    [
      "nh",
      "ắc"
    ],
    [
      "phi",
      "ếu"
    ],
    [
      "c",
      "re"
    ],
    [
      "ti",
      "ểu"
    ],
    [
      "gir",
      "l"
    ],
    [
      "to",
      "án"
    ],
    [
      "lad",
      "y"
    ],
    [
      "n",
      "ửa"
    ],
    [
      "ồ",
      "m"
    ],
    [
      "ng",
      "ựa"
    ],
    [
      "le",
      "a"
    ],
    [
      "b",
      "re"
    ],
    [
      "mù",
      "a"
    ],
    [
      "h",
      "ề"
    ],
    [
      "s",
      "y"
    ],
    [
      "qu",
      "ên"
    ],
    [
      "th",
      "ù"
    ],
    [
      "ch",
      "ợ"
    ],
    [
      "bu",
      "ộc"
    ],
    [
      "n",
      "ã"
    ],
    [
      "cer",
      "tain"
    ],
    [
      "read",
      "y"
    ],
    [
      "kin",
      "d"
    ],
    [
      "t",
      "ấm"
    ],
    [
      "m",
      "ật"
    ],
    [
      "e",
      "ach"
    ],
    [
      "fo",
      "llo"
    ],
    [
      "bet",
      "ter"
    ],
    [
      "lo",
      "w"
    ],
    [
      "hal",
      "f"
    ],
    [
      "h",
      "ương"
    ],
    [
      "so",
      "on"
    ],
    [
      "t",
      "óc"
    ],
    [
      "l",
      "ặng"
    ],
    [
      "m",
      "ơ"
    ],
    [
      "b",
      "í"
    ],
    [
      "fin",
      "d"
    ],
    [
      "tr",
      "ụ"
    ],
    [
      "n",
      "è"
    ],
    [
      "s",
      "ớm"
    ],
    [
      "ẹ",
      "n"
    ],
    [
      "ổ",
      "n"
    ],
    [
      "m",
      "ũ"
    ],
    [
      "g",
      "n"
    ],
    [
      "đu",
      "ổi"
    ],
    [
      "tí",
      "n"
    ],
    [
      "ti",
      "ềm"
    ],
    [
      "cơ",
      "m"
    ],
    [
      "m",
      "ón"
    ],
    [
      "thu",
      "ận"
    ],
    [
      "ỗ",
      "ng"
    ],
    [
      "hear",
      "t"
    ],
    [
      "d",
      "ấu"
    ],
    [
      "s",
      "ài"
    ],
    [
      "cour",
      "se"
    ],
    [
      "w",
      "al"
    ],
    [
      "l",
      "ĩnh"
    ],
    [
      "wor",
      "d"
    ],
    [
      "đ",
      "ảm"
    ],
    [
      "k",
      "êu"
    ],
    [
      "l",
      "ầm"
    ],
    [
      "l",
      "ê"
    ],
    [
      "ki",
      "ên"
    ],
    [
      "m",
      "ô"
    ],
    [
      "th",
      "ừa"
    ],
    [
      "p",
      "s"
    ],
    [
      "l",
      "t"
    ],
    [
      "ủ",
      "i"
    ],
    [
      "á",
      "y"
    ],
    [
      "l",
      "ối"
    ],
    [
      "kh",
      "ỏ"
    ],
    [
      "th",
      "ăm"
    ],
    [
      "t",
      "ộc"
    ],
    [
      "s",
      "ân"
    ],
    [
      "t",
      "ả"
    ],
    [
      "par",
      "t"
    ],
    [
      "th",
      "ấp"
    ],
    [
      "đ",
      "ỡ"
    ],
    [
      "đ",
      "ương"
    ],
    [
      "d",
      "re"
    ],
    [
      "ngh",
      "ị"
    ],
    [
      "su",
      "b"
    ],
    [
      "r",
      "ừng"
    ],
    [
      "s",
      "s"
    ],
    [
      "again",
      "st"
    ],
    [
      "be",
      "gan"
    ],
    [
      "ngh",
      "ỉ"
    ],
    [
      "t",
      "ầm"
    ],
    [
      "khỏ",
      "e"
    ],
    [
      "year",
      "s"
    ],
    [
      "li",
      "ed"
    ],
    [
      "do",
      "es"
    ],
    [
      "fe",
      "w"
    ],
    [
      "bod",
      "y"
    ],
    [
      "r",
      "ơi"
    ],
    [
      "ẩ",
      "u"
    ],
    [
      "đ",
      "ào"
    ],
    [
      "r",
      "út"
    ],
    [
      "po",
      "wer"
    ],
    [
      "k",
      "ính"
    ],
    [
      "ce",
      "i"
    ],
    [
      "x",
      "i"
    ],
    [
      "s",
      "úng"
    ],
    [
      "fri",
      "end"
    ],
    [
      "hu",
      "ệ"
    ],
    [
      "luy",
      "ện"
    ],
    [
      "u",
      "k"
    ],
    [
      "ph",
      "ù"
    ],
    [
      "bu",
      "r"
    ],
    [
      "l",
      "ưng"
    ],
    [
      "mor",
      "ning"
    ],
    [
      "ù",
      "a"
    ],
    [
      "gi",
      "ọng"
    ],
    [
      "gi",
      "ận"
    ],
    [
      "ha",
      "ving"
    ],
    [
      "ng",
      "ược"
    ],
    [
      "b",
      "ữa"
    ],
    [
      "m",
      "ê"
    ],
    [
      "her",
      "self"
    ],
    [
      "kho",
      "ản"
    ],
    [
      "ộ",
      "n"
    ],
    [
      "al",
      "so"
    ],
    [
      "ch",
      "ăm"
    ],
    [
      "enou",
      "gh"
    ],
    [
      "x",
      "o"
    ],
    [
      "ga",
      "ve"
    ],
    [
      "per",
      "son"
    ],
    [
      "g",
      "ửi"
    ],
    [
      "ớ",
      "t"
    ],
    [
      "s",
      "hi"
    ],
    [
      "c",
      "ắt"
    ],
    [
      "bo",
      "th"
    ],
    [
      "đ",
      "ảo"
    ],
    [
      "nh",
      "ẹ"
    ],
    [
      "b",
      "ấy"
    ],
    [
      "ng",
      "ữ"
    ],
    [
      "tri",
      "ều"
    ],
    [
      "o",
      "c"
    ],
    [
      "đ",
      "ẩy"
    ],
    [
      "p",
      "ri"
    ],
    [
      "my",
      "self"
    ],
    [
      "po",
      "or"
    ],
    [
      "k",
      "ích"
    ],
    [
      "be",
      "au"
    ],
    [
      "tur",
      "ned"
    ],
    [
      "l",
      "ẫn"
    ],
    [
      "d",
      "ữ"
    ],
    [
      "n",
      "ạn"
    ],
    [
      "õ",
      "i"
    ],
    [
      "d",
      "àng"
    ],
    [
      "it",
      "'s"
    ],
    [
      "w",
      "ant"
    ],
    [
      "bet",
      "we"
    ],
    [
      "betwe",
      "en"
    ],
    [
      "kh",
      "ắp"
    ],
    [
      "tho",
      "ại"
    ],
    [
      "in",
      "ter"
    ],
    [
      "ho",
      "ạch"
    ],
    [
      "who",
      "le"
    ],
    [
      "p",
      "ped"
    ],
    [
      "you",
      "'"
    ],
    [
      "y",
      "e"
    ],
    [
      "fo",
      "o"
    ],
    [
      "ỏ",
      "ng"
    ],
    [
      "ng",
      "ăn"
    ],
    [
      "b",
      "ờ"
    ],
    [
      "m",
      "ừng"
    ],
    [
      "đ",
      "òi"
    ],
    [
      "mat",
      "ter"
    ],
    [
      "th",
      "ánh"
    ],
    [
      "h",
      "át"
    ],
    [
      "xu",
      "ân"
    ],
    [
      "ch",
      "ừng"
    ],
    [
      "gi",
      "ó"
    ],
    [
      "ph",
      "ận"
    ],
    [
      "d",
      "ị"
    ],
    [
      "ng",
      "ắn"
    ],
    [
      "any",
      "thing"
    ],
    [
      "d",
      "ây"
    ],
    [
      "ấ",
      "c"
    ],
    [
      "beli",
      "e"
    ],
    [
      "qu",
      "e"
    ],
    [
      "en",
      "ce"
    ],
    [
      "h",
      "ỗ"
    ],
    [
      "é",
      "n"
    ],
    [
      "r",
      "ời"
    ],
    [
      "nghi",
      "êm"
    ],
    [
      "l",
      "ỗ"
    ],
    [
      "kh",
      "ởi"
    ],
    [
      "nu",
      "ôi"
    ],
    [
      "t",
      "ờ"
    ],
    [
      "e",
      "i"
    ],
    [
      "so",
      "át"
    ],
    [
      "pu",
      "r"
    ],
    [
      "cu",
      "r"
    ],
    [
      "c",
      "ried"
    ],
    [
      "nex",
      "t"
    ],
    [
      "tr",
      "ì"
    ],
    [
      "si",
      "x"
    ],
    [
      "su",
      "d"
    ],
    [
      "sud",
      "den"
    ],
    [
      "rep",
      "lied"
    ],
    [
      "t",
      "ắc"
    ],
    [
      "d",
      "ầu"
    ],
    [
      "n",
      "a"
    ],
    [
      "t",
      "ần"
    ],
    [
      "s",
      "mi"
    ],
    [
      "t",
      "ỷ"
    ],
    [
      "l",
      "s"
    ],
    [
      "tr",
      "ại"
    ],
    [
      "day",
      "s"
    ],
    [
      "x",
      "ếp"
    ],
    [
      "voi",
      "ce"
    ],
    [
      "s",
      "ẻ"
    ],
    [
      "al",
      "most"
    ],
    [
      "de",
      "ed"
    ],
    [
      "c",
      "ân"
    ],
    [
      "ỏ",
      "a"
    ],
    [
      "l",
      "ũ"
    ],
    [
      "t",
      "ĩnh"
    ],
    [
      "h",
      "ôn"
    ],
    [
      "t",
      "ụi"
    ],
    [
      "ng",
      "ại"
    ],
    [
      "th",
      "ở"
    ],
    [
      "ti",
      "l"
    ],
    [
      "ù",
      "i"
    ],
    [
      "per",
      "haps"
    ],
    [
      "tr",
      "ốn"
    ],
    [
      "ch",
      "ặt"
    ],
    [
      "nhu",
      "ận"
    ],
    [
      "ph",
      "óng"
    ],
    [
      "c",
      "ờ"
    ],
    [
      "hi",
      "gh"
    ],
    [
      "g",
      "ồm"
    ],
    [
      "b",
      "ắn"
    ],
    [
      "d",
      "y"
    ],
    [
      "e",
      "u"
    ],
    [
      "gi",
      "ỏi"
    ],
    [
      "b",
      "ỗng"
    ],
    [
      "ng",
      "ã"
    ],
    [
      "s",
      "àng"
    ],
    [
      "tri",
      "ết"
    ],
    [
      "d",
      "ĩ"
    ],
    [
      "chi",
      "ếm"
    ],
    [
      "h",
      "út"
    ],
    [
      "ú",
      "a"
    ],
    [
      "m",
      "ưa"
    ],
    [
      "trị",
      "nh"
    ],
    [
      "su",
      "f"
    ],
    [
      "đ",
      "ốc"
    ],
    [
      "to",
      "gether"
    ],
    [
      "t",
      "àn"
    ],
    [
      "bi",
      "ên"
    ],
    [
      "i'",
      "m"
    ],
    [
      "he",
      "a"
    ],
    [
      "lo",
      "ài"
    ],
    [
      "sin",
      "ce"
    ],
    [
      "tr",
      "ừ"
    ],
    [
      "th",
      "ờ"
    ],
    [
      "hun",
      "dred"
    ],
    [
      "z",
      "e"
    ],
    [
      "v",
      "ê"
    ],
    [
      "tr",
      "ương"
    ],
    [
      "un",
      "til"
    ],
    [
      "v",
      "ội"
    ],
    [
      "m",
      "ắc"
    ],
    [
      "de",
      "ath"
    ],
    [
      "fe",
      "et"
    ],
    [
      "thị",
      "t"
    ],
    [
      "l",
      "ục"
    ],
    [
      "s",
      "ơ"
    ],
    [
      "in",
      "deed"
    ],
    [
      "lo",
      "ạn"
    ],
    [
      "f",
      "air"
    ],
    [
      "ph",
      "ật"
    ],
    [
      "l",
      "ẻ"
    ],
    [
      "t",
      "ô"
    ],
    [
      "ch",
      "óng"
    ],
    [
      "b",
      "èn"
    ],
    [
      "b",
      "rought"
    ],
    [
      "gi",
      "ường"
    ],
    [
      "in",
      "di"
    ],
    [
      "ch",
      "ăng"
    ],
    [
      "ph",
      "ó"
    ],
    [
      "ni",
      "ên"
    ],
    [
      "n",
      "ông"
    ],
    [
      "ủ",
      "y"
    ],
    [
      "fi",
      "ve"
    ],
    [
      "m",
      "ệt"
    ],
    [
      "c",
      "ập"
    ],
    [
      "b",
      "ụng"
    ],
    [
      "ó",
      "p"
    ],
    [
      "mi",
      "ền"
    ],
    [
      "dar",
      "k"
    ],
    [
      "chi",
      "ếu"
    ],
    [
      "d",
      "ừng"
    ],
    [
      "ậ",
      "c"
    ],
    [
      "ng",
      "ươi"
    ],
    [
      "b",
      "ậc"
    ],
    [
      "ng",
      "ọn"
    ],
    [
      "nh",
      "ằm"
    ],
    [
      "or",
      "der"
    ],
    [
      "quy",
      "ển"
    ],
    [
      "s",
      "ổ"
    ],
    [
      "ro",
      "ad"
    ],
    [
      "mũ",
      "i"
    ],
    [
      "h",
      "ùng"
    ],
    [
      "d",
      "ra"
    ],
    [
      "possi",
      "ble"
    ],
    [
      "qu",
      "ê"
    ],
    [
      "can",
      "not"
    ],
    [
      "c",
      "ỏ"
    ],
    [
      "s",
      "mall"
    ],
    [
      "dou",
      "b"
    ],
    [
      "f",
      "ami"
    ],
    [
      "o",
      "p"
    ],
    [
      "g",
      "ã"
    ],
    [
      "ngh",
      "èo"
    ],
    [
      "đ",
      "èn"
    ],
    [
      "r",
      "ối"
    ],
    [
      "g",
      "s"
    ],
    [
      "v",
      "an"
    ],
    [
      "d",
      "ường"
    ],
    [
      "win",
      "do"
    ],
    [
      "let",
      "ter"
    ],
    [
      "c",
      "ận"
    ],
    [
      "v",
      "ân"
    ],
    [
      "b",
      "rother"
    ],
    [
      "nguy",
      "ện"
    ],
    [
      "k",
      "ịp"
    ],
    [
      "t",
      "ề"
    ],
    [
      "è",
      "m"
    ],
    [
      "b",
      "lack"
    ],
    [
      "b",
      "ầu"
    ],
    [
      "mone",
      "y"
    ],
    [
      "n",
      "ổ"
    ],
    [
      "k",
      "ém"
    ],
    [
      "other",
      "s"
    ],
    [
      "f",
      "ran"
    ],
    [
      "w",
      "at"
    ],
    [
      "uk",
      "raina"
    ],
    [
      "v",
      "ết"
    ],
    [
      "th",
      "ói"
    ],
    [
      "ch",
      "ó"
    ],
    [
      "ro",
      "ss"
    ],
    [
      "ng",
      "ô"
    ],
    [
      "thu",
      "a"
    ],
    [
      "b",
      "lo"
    ],
    [
      "đ",
      "ạn"
    ],
    [
      "t",
      "úi"
    ],
    [
      "fu",
      "r"
    ],
    [
      "đ",
      "ằng"
    ],
    [
      "ng",
      "ừng"
    ],
    [
      "ng",
      "ạc"
    ],
    [
      "ke",
      "ep"
    ],
    [
      "h",
      "ấp"
    ],
    [
      "coun",
      "try"
    ],
    [
      "t",
      "ớ"
    ],
    [
      "coun",
      "t"
    ],
    [
      "tru",
      "e"
    ],
    [
      "je",
      "ct"
    ],
    [
      "ng",
      "ân"
    ],
    [
      "hel",
      "p"
    ],
    [
      "m",
      "ệnh"
    ],
    [
      "v",
      "ạn"
    ],
    [
      "ì",
      "a"
    ],
    [
      "lar",
      "ge"
    ],
    [
      "g",
      "óc"
    ],
    [
      "m",
      "p"
    ],
    [
      "s",
      "ứ"
    ],
    [
      "lor",
      "d"
    ],
    [
      "c",
      "ẩn"
    ],
    [
      "mã",
      "n"
    ],
    [
      "n",
      "ối"
    ],
    [
      "th",
      "ụ"
    ],
    [
      "lis",
      "h"
    ],
    [
      "joh",
      "n"
    ],
    [
      "con",
      "tinu"
    ],
    [
      "b",
      "ăng"
    ],
    [
      "đ",
      "e"
    ],
    [
      "sen",
      "t"
    ],
    [
      "ans",
      "wered"
    ],
    [
      "ự",
      "ng"
    ],
    [
      "c",
      "ri"
    ],
    [
      "đ",
      "ài"
    ],
    [
      "prin",
      "ce"
    ],
    [
      "n",
      "ợ"
    ],
    [
      "poin",
      "t"
    ],
    [
      "me",
      "an"
    ],
    [
      "ũ",
      "ng"
    ],
    [
      "t",
      "ệ"
    ],
    [
      "h",
      "ứa"
    ],
    [
      "k",
      "í"
    ],
    [
      "en",
      "t"
    ],
    [
      "ch",
      "ậm"
    ],
    [
      "l",
      "âm"
    ],
    [
      "la",
      "w"
    ],
    [
      "th",
      "ổ"
    ],
    [
      "n",
      "ỗ"
    ],
    [
      "điệ",
      "p"
    ],
    [
      "ch",
      "ánh"
    ],
    [
      "c",
      "ư"
    ],
    [
      "b",
      "è"
    ],
    [
      "i'",
      "ll"
    ],
    [
      "tra",
      "o"
    ],
    [
      "l",
      "ược"
    ],
    [
      "đ",
      "ảng"
    ],
    [
      "b",
      "ật"
    ],
    [
      "t",
      "ạp"
    ],
    [
      "g",
      "round"
    ],
    [
      "hin",
      "d"
    ],
    [
      "ci",
      "ous"
    ],
    [
      "lea",
      "ve"
    ],
    [
      "de",
      "ad"
    ],
    [
      "g",
      "ốc"
    ],
    [
      "who",
      "se"
    ],
    [
      "tuy",
      "ển"
    ],
    [
      "g",
      "ương"
    ],
    [
      "h",
      "ầm"
    ],
    [
      "t",
      "ạm"
    ],
    [
      "se",
      "a"
    ],
    [
      "c",
      "le"
    ],
    [
      "gi",
      "ặc"
    ],
    [
      "th",
      "ận"
    ],
    [
      "p",
      "lay"
    ],
    [
      "wis",
      "h"
    ],
    [
      "kh",
      "ủng"
    ],
    [
      "m",
      "ắn"
    ],
    [
      "v",
      "ỡ"
    ],
    [
      "t",
      "wenty"
    ],
    [
      "belie",
      "ve"
    ],
    [
      "kh",
      "ẩu"
    ],
    [
      "ng",
      "ọc"
    ],
    [
      "đ",
      "à"
    ],
    [
      "mu",
      "r"
    ],
    [
      "re",
      "ason"
    ],
    [
      "sudden",
      "ly"
    ],
    [
      "themsel",
      "ves"
    ],
    [
      "ụ",
      "p"
    ],
    [
      "n",
      "ầy"
    ],
    [
      "th",
      "ỏa"
    ],
    [
      "đ",
      "ựng"
    ],
    [
      "man",
      "ner"
    ],
    [
      "ẫ",
      "m"
    ],
    [
      "se",
      "con"
    ],
    [
      "si",
      "êu"
    ],
    [
      "khu",
      "ôn"
    ],
    [
      "hi",
      "ền"
    ],
    [
      "spe",
      "ak"
    ],
    [
      "th",
      "í"
    ],
    [
      "a",
      "h"
    ],
    [
      "that",
      "'s"
    ],
    [
      "s",
      "óng"
    ],
    [
      "t",
      "á"
    ],
    [
      "chi",
      "ef"
    ],
    [
      "ng",
      "ũ"
    ],
    [
      "o",
      "l"
    ],
    [
      "chuy",
      "ến"
    ],
    [
      "jo",
      "y"
    ],
    [
      "gi",
      "ấc"
    ],
    [
      "re",
      "ally"
    ],
    [
      "ườ",
      "n"
    ],
    [
      "s",
      "le"
    ],
    [
      "m",
      "ẫu"
    ],
    [
      "won",
      "der"
    ],
    [
      "nã",
      "o"
    ],
    [
      "p",
      "y"
    ],
    [
      "f",
      "act"
    ],
    [
      "v",
      "ời"
    ],
    [
      "hu",
      "r"
    ],
    [
      "as",
      "k"
    ],
    [
      "ph",
      "ú"
    ],
    [
      "shi",
      "p"
    ],
    [
      "al",
      "ready"
    ],
    [
      "for",
      "m"
    ],
    [
      "tur",
      "n"
    ],
    [
      "ph",
      "ổ"
    ],
    [
      "cap",
      "tain"
    ],
    [
      "th",
      "áp"
    ],
    [
      "ph",
      "ê"
    ],
    [
      "c",
      "ất"
    ],
    [
      "ex",
      "p"
    ],
    [
      "m",
      "ảnh"
    ],
    [
      "m",
      "ưu"
    ],
    [
      "say",
      "s"
    ],
    [
      "be",
      "hind"
    ],
    [
      "v",
      "ững"
    ],
    [
      "su",
      "c"
    ],
    [
      "b",
      "ổ"
    ],
    [
      "g",
      "ấp"
    ],
    [
      "ru",
      "ột"
    ],
    [
      "gh",
      "ế"
    ],
    [
      "v",
      "al"
    ],
    [
      "re",
      "cei"
    ],
    [
      "t",
      "ân"
    ],
    [
      "v",
      "ườn"
    ],
    [
      "pi",
      "e"
    ],
    [
      "ho",
      "á"
    ],
    [
      "bo",
      "ok"
    ],
    [
      "d",
      "ứt"
    ],
    [
      "ng",
      "ụ"
    ],
    [
      "ho",
      "ài"
    ],
    [
      "t",
      "ú"
    ],
    [
      "h",
      "ứng"
    ],
    [
      "m",
      "ẽ"
    ],
    [
      "ch",
      "ối"
    ],
    [
      "ti",
      "ếc"
    ],
    [
      "h",
      "ẹn"
    ],
    [
      "fe",
      "ct"
    ],
    [
      "ho",
      "ảng"
    ],
    [
      "beau",
      "tiful"
    ],
    [
      "every",
      "thing"
    ],
    [
      "c",
      "ặp"
    ],
    [
      "ằ",
      "n"
    ],
    [
      "shor",
      "t"
    ],
    [
      "n",
      "ấu"
    ],
    [
      "th",
      "ách"
    ],
    [
      "v",
      "ĩ"
    ],
    [
      "s",
      "óc"
    ],
    [
      "v",
      "a"
    ],
    [
      "p",
      "ain"
    ],
    [
      "c",
      "ãi"
    ],
    [
      "secon",
      "d"
    ],
    [
      "nh",
      "é"
    ],
    [
      "tha",
      "o"
    ],
    [
      "h",
      "ổ"
    ],
    [
      "g",
      "ắn"
    ],
    [
      "bi",
      "g"
    ],
    [
      "vi",
      "e"
    ],
    [
      "su",
      "m"
    ],
    [
      "ẫ",
      "y"
    ],
    [
      "of",
      "ten"
    ],
    [
      "abo",
      "ve"
    ],
    [
      "ặ",
      "m"
    ],
    [
      "ch",
      "ớ"
    ],
    [
      "v",
      "ẽ"
    ],
    [
      "g",
      "à"
    ],
    [
      "ch",
      "ục"
    ],
    [
      "tr",
      "ấn"
    ],
    [
      "de",
      "ep"
    ],
    [
      "hor",
      "se"
    ],
    [
      "d",
      "ưỡng"
    ],
    [
      "dau",
      "ghter"
    ],
    [
      "w",
      "hether"
    ],
    [
      "ro",
      "se"
    ],
    [
      "ex",
      "c"
    ],
    [
      "du",
      "ring"
    ],
    [
      "b",
      "ận"
    ],
    [
      "clo",
      "se"
    ],
    [
      "b",
      "ạo"
    ],
    [
      "đ",
      "ập"
    ],
    [
      "the",
      "e"
    ],
    [
      "c",
      "à"
    ],
    [
      "kí",
      "n"
    ],
    [
      "ous",
      "ly"
    ],
    [
      "m",
      "ờ"
    ],
    [
      "kh",
      "ối"
    ],
    [
      "b",
      "ri"
    ],
    [
      "to",
      "wards"
    ],
    [
      "windo",
      "w"
    ],
    [
      "g",
      "óp"
    ],
    [
      "tuy",
      "ết"
    ],
    [
      "cướ",
      "p"
    ],
    [
      "h",
      "án"
    ],
    [
      "be",
      "gin"
    ],
    [
      "ni",
      "ce"
    ],
    [
      "ear",
      "th"
    ],
    [
      "b",
      "ò"
    ],
    [
      "đ",
      "ỉnh"
    ],
    [
      "cu",
      "lar"
    ],
    [
      "s",
      "we"
    ],
    [
      "g",
      "òn"
    ],
    [
      "l",
      "ượt"
    ],
    [
      "cu",
      "t"
    ],
    [
      "ã",
      "n"
    ],
    [
      "đ",
      "ốt"
    ],
    [
      "kep",
      "t"
    ],
    [
      "mi",
      "ếng"
    ],
    [
      "g",
      "ỗ"
    ],
    [
      "si",
      "ght"
    ],
    [
      "ượ",
      "n"
    ],
    [
      "a",
      "w"
    ],
    [
      "th",
      "ợ"
    ],
    [
      "v",
      "ả"
    ],
    [
      "m",
      "ốt"
    ],
    [
      "ngo",
      "an"
    ],
    [
      "s",
      "h"
    ],
    [
      "t",
      "ặng"
    ],
    [
      "ri",
      "ver"
    ],
    [
      "ne",
      "ed"
    ],
    [
      "sen",
      "se"
    ],
    [
      "x",
      "ô"
    ],
    [
      "thu",
      "ê"
    ],
    [
      "fe",
      "el"
    ],
    [
      "sou",
      "l"
    ],
    [
      "ob",
      "ser"
    ],
    [
      "lo",
      "st"
    ],
    [
      "foo",
      "t"
    ],
    [
      "li",
      "p"
    ],
    [
      "d",
      "õi"
    ],
    [
      "qui",
      "ck"
    ],
    [
      "m",
      "ộ"
    ],
    [
      "doub",
      "t"
    ],
    [
      "v",
      "y"
    ],
    [
      "li",
      "ve"
    ],
    [
      "did",
      "n't"
    ],
    [
      "hiệ",
      "p"
    ],
    [
      "r",
      "ủi"
    ],
    [
      "nh",
      "ẫn"
    ],
    [
      "n",
      "y"
    ],
    [
      "k",
      "ép"
    ],
    [
      "ưỡ",
      "i"
    ],
    [
      "d",
      "ũng"
    ],
    [
      "tù",
      "y"
    ],
    [
      "wo",
      "od"
    ],
    [
      "tru",
      "th"
    ],
    [
      "c",
      "lu"
    ],
    [
      "ne",
      "y"
    ],
    [
      "fami",
      "ly"
    ],
    [
      "x",
      "ương"
    ],
    [
      "on",
      "s"
    ],
    [
      "t",
      "òa"
    ],
    [
      "g",
      "lad"
    ],
    [
      "d",
      "ọn"
    ],
    [
      "be",
      "came"
    ],
    [
      "tr",
      "ùng"
    ],
    [
      "lu",
      "i"
    ],
    [
      "s",
      "ạch"
    ],
    [
      "ch",
      "ở"
    ],
    [
      "g",
      "y"
    ],
    [
      "l",
      "ôi"
    ],
    [
      "tr",
      "ôi"
    ],
    [
      "ch",
      "áy"
    ],
    [
      "l",
      "í"
    ],
    [
      "gh",
      "ét"
    ],
    [
      "ar",
      "ri"
    ],
    [
      "g",
      "ạo"
    ],
    [
      "tho",
      "ải"
    ],
    [
      "d",
      "le"
    ],
    [
      "n",
      "ọ"
    ],
    [
      "ớ",
      "n"
    ],
    [
      "c",
      "ấm"
    ],
    [
      "sor",
      "t"
    ],
    [
      "hà",
      "m"
    ],
    [
      "ph",
      "ức"
    ],
    [
      "bu",
      "ôn"
    ],
    [
      "n",
      "ắng"
    ],
    [
      "th",
      "ập"
    ],
    [
      "for",
      "t"
    ],
    [
      "b",
      "á"
    ],
    [
      "le",
      "o"
    ],
    [
      "họ",
      "p"
    ],
    [
      "ọ",
      "a"
    ],
    [
      "đi",
      "ền"
    ],
    [
      "m",
      "ber"
    ],
    [
      "hộ",
      "p"
    ],
    [
      "đ",
      "ệ"
    ],
    [
      "d",
      "ã"
    ],
    [
      "n",
      "âng"
    ],
    [
      "x",
      "ứng"
    ],
    [
      "đi",
      "ên"
    ],
    [
      "e",
      "ye"
    ],
    [
      "b",
      "ụi"
    ],
    [
      "su",
      "ất"
    ],
    [
      "ù",
      "m"
    ],
    [
      "m",
      "ạc"
    ],
    [
      "f",
      "an"
    ],
    [
      "ộ",
      "m"
    ],
    [
      "d",
      "áng"
    ],
    [
      "pret",
      "ty"
    ],
    [
      "nh",
      "ị"
    ],
    [
      "f",
      "a"
    ],
    [
      "hi",
      "ến"
    ],
    [
      "gi",
      "ấu"
    ],
    [
      "ễ",
      "u"
    ],
    [
      "c",
      "ry"
    ],
    [
      "gi",
      "ật"
    ],
    [
      "kh",
      "ô"
    ],
    [
      "gi",
      "ây"
    ],
    [
      "x",
      "ứ"
    ],
    [
      "b",
      "ãi"
    ],
    [
      "l",
      "ừa"
    ],
    [
      "we",
      "'"
    ],
    [
      "ar",
      "ms"
    ],
    [
      "we",
      "e"
    ],
    [
      "d",
      "ọc"
    ],
    [
      "tr",
      "à"
    ],
    [
      "tal",
      "k"
    ],
    [
      "đ",
      "ỗ"
    ],
    [
      "vi",
      "ce"
    ],
    [
      "b",
      "ếp"
    ],
    [
      "ide",
      "a"
    ],
    [
      "mon",
      "th"
    ],
    [
      "thu",
      "ế"
    ],
    [
      "bu",
      "i"
    ],
    [
      "g",
      "ra"
    ],
    [
      "s",
      "ắt"
    ],
    [
      "sup",
      "pose"
    ],
    [
      "for",
      "d"
    ],
    [
      "h",
      "ằng"
    ],
    [
      "s",
      "car"
    ],
    [
      "nh",
      "ắm"
    ],
    [
      "huy",
      "ền"
    ],
    [
      "under",
      "stand"
    ],
    [
      "ad",
      "ded"
    ],
    [
      "n",
      "ô"
    ],
    [
      "n",
      "ét"
    ],
    [
      "say",
      "ing"
    ],
    [
      "l",
      "úa"
    ],
    [
      "y",
      "on"
    ],
    [
      "p",
      "aper"
    ],
    [
      "t",
      "òng"
    ],
    [
      "s",
      "low"
    ],
    [
      "nã",
      "y"
    ],
    [
      "f",
      "ron"
    ]
  ],
  "vocab_to_id": {
    " ": 0,
    "<eos>": 1,
    "<sos>": 2,
    "<blank>": 3,
    "<pad>": 4,
    "<unk>": 5,
    "'": 6,
    "'s": 7,
    "'t": 8,
    "0": 9,
    "1": 10,
    "2": 11,
    "3": 12,
    "6": 13,
    "7": 14,
    "a": 15,
    "ab": 16,
    "able": 17,
    "about": 18,
    "above": 19,
    "ac": 20,
    "ad": 21,
    "added": 22,
    "af": 23,
    "after": 24,
    "ag": 25,
    "again": 26,
    "against": 27,
    "ah": 28,
    "ai": 29,
    "ak": 30,
    "al": 31,
    "almost": 32,
    "already": 33,
    "also": 34,
    "always": 35,
    "am": 36,
    "an": 37,
    "and": 38,
    "ans": 39,
    "answered": 40,
    "ant": 41,
    "any": 42,
    "anything": 43,
    "ap": 44,
    "ar": 45,
    "ard": 46,
    "arms": 47,
    "arri": 48,
    "as": 49,
    "ask": 50,
    "asked": 51,
    "at": 52,
    "au": 53,
    "aw": 54,
    "away": 55,
    "ay": 56,
    "b": 57,
    "ba": 58,
    "bao": 59,
    "be": 60,
    "beau": 61,
    "beautiful": 62,
    "became": 63,
    "because": 64,
    "been": 65,
    "before": 66,
    "began": 67,
    "begin": 68,
    "behind": 69,
    "being": 70,
    "belie": 71,
    "believe": 72,
    "better": 73,
    "betwe": 74,
    "between": 75,
    "bi": 76,
    "big": 77,
    "biên": 78,
    "biến": 79,
    "biết": 80,
    "biển": 81,
    "biểu": 82,
    "biệt": 83,
    "black": 84,
    "ble": 85,
    "blo": 86,
    "bo": 87,
    "body": 88,
    "book": 89,
    "both": 90,
    "boy": 91,
    "bre": 92,
    "bri": 93,
    "brother": 94,
    "brought": 95,
    "bu": 96,
    "bui": 97,
    "bur": 98,
    "but": 99,
    "buôn": 100,
    "buồn": 101,
    "buổi": 102,
    "buộc": 103,
    "by": 104,
    "bà": 105,
    "bá": 106,
    "bác": 107,
    "bán": 108,
    "báo": 109,
    "bây": 110,
    "bãi": 111,
    "bè": 112,
    "bèn": 113,
    "bé": 114,
    "bên": 115,
    "bình": 116,
    "bí": 117,
    "bò": 118,
    "bóng": 119,
    "băng": 120,
    "bước": 121,
    "bạc": 122,
    "bại": 123,
    "bạn": 124,
    "bạo": 125,
    "bản": 126,
    "bảo": 127,
    "bảy": 128,
    "bất": 129,
    "bấy": 130,
    "bầu": 131,
    "bậc": 132,
    "bận": 133,
    "bật": 134,
    "bắc": 135,
    "bắn": 136,
    "bắt": 137,
    "bằng": 138,
    "bếp": 139,
    "bệnh": 140,
    "bị": 141,
    "bọn": 142,
    "bỏ": 143,
    "bố": 144,
    "bốn": 145,
    "bổ": 146,
    "bỗng": 147,
    "bộ": 148,
    "bờ": 149,
    "bởi": 150,
    "bụi": 151,
    "bụng": 152,
    "bức": 153,
    "bữa": 154,
    "c": 155,
    "ca": 156,
    "cannot": 157,
    "cao": 158,
    "captain": 159,
    "ce": 160,
    "cei": 161,
    "certain": 162,
    "ch": 163,
    "chia": 164,
    "chief": 165,
    "child": 166,
    "chiếc": 167,
    "chiếm": 168,
    "chiến": 169,
    "chiếu": 170,
    "chiều": 171,
    "chuy": 172,
    "chuyến": 173,
    "chuyển": 174,
    "chuyện": 175,
    "chuẩn": 176,
    "chánh": 177,
    "cháu": 178,
    "cháy": 179,
    "chân": 180,
    "châu": 181,
    "chí": 182,
    "chín": 183,
    "chính": 184,
    "chó": 185,
    "chóng": 186,
    "chú": 187,
    "chúa": 188,
    "chúng": 189,
    "chăm": 190,
    "chăng": 191,
    "chơi": 192,
    "chưa": 193,
    "chương": 194,
    "chạy": 195,
    "chấp": 196,
    "chất": 197,
    "chậm": 198,
    "chắc": 199,
    "chẳng": 200,
    "chặt": 201,
    "chế": 202,
    "chỉ": 203,
    "chị": 204,
    "chịu": 205,
    "chối": 206,
    "chống": 207,
    "chỗ": 208,
    "chớ": 209,
    "chờ": 210,
    "chở": 211,
    "chợ": 212,
    "chục": 213,
    "chủ": 214,
    "chứ": 215,
    "chừng": 216,
    "chữ": 217,
    "ci": 218,
    "cious": 219,
    "ck": 220,
    "cle": 221,
    "clo": 222,
    "close": 223,
    "clu": 224,
    "co": 225,
    "coi": 226,
    "com": 227,
    "comp": 228,
    "con": 229,
    "continu": 230,
    "could": 231,
    "count": 232,
    "country": 233,
    "course": 234,
    "cre": 235,
    "cri": 236,
    "cried": 237,
    "cry": 238,
    "ct": 239,
    "cu": 240,
    "cular": 241,
    "cur": 242,
    "cut": 243,
    "cuối": 244,
    "cuốn": 245,
    "cuộc": 246,
    "cy": 247,
    "cà": 248,
    "càng": 249,
    "cá": 250,
    "các": 251,
    "cái": 252,
    "cân": 253,
    "câu": 254,
    "cây": 255,
    "cãi": 256,
    "còn": 257,
    "có": 258,
    "cô": 259,
    "công": 260,
    "cùng": 261,
    "căn": 262,
    "cũ": 263,
    "cũng": 264,
    "cơ": 265,
    "cơm": 266,
    "cư": 267,
    "cướp": 268,
    "cười": 269,
    "cạnh": 270,
    "cả": 271,
    "cảm": 272,
    "cấm": 273,
    "cấp": 274,
    "cất": 275,
    "cầm": 276,
    "cần": 277,
    "cầu": 278,
    "cẩn": 279,
    "cận": 280,
    "cập": 281,
    "cậu": 282,
    "cắt": 283,
    "cặp": 284,
    "cỏ": 285,
    "cố": 286,
    "cổ": 287,
    "cộng": 288,
    "cờ": 289,
    "cụ": 290,
    "của": 291,
    "cứ": 292,
    "cứu": 293,
    "cử": 294,
    "cửa": 295,
    "cực": 296,
    "d": 297,
    "da": 298,
    "dark": 299,
    "daughter": 300,
    "day": 301,
    "days": 302,
    "de": 303,
    "dead": 304,
    "death": 305,
    "deed": 306,
    "deep": 307,
    "di": 308,
    "didn't": 309,
    "diễn": 310,
    "dle": 311,
    "do": 312,
    "doanh": 313,
    "does": 314,
    "door": 315,
    "doub": 316,
    "doubt": 317,
    "down": 318,
    "dra": 319,
    "dre": 320,
    "ds": 321,
    "du": 322,
    "during": 323,
    "dy": 324,
    "dài": 325,
    "dàng": 326,
    "dành": 327,
    "dám": 328,
    "dáng": 329,
    "dân": 330,
    "dây": 331,
    "dã": 332,
    "dòng": 333,
    "dõi": 334,
    "dù": 335,
    "dĩ": 336,
    "dũng": 337,
    "dương": 338,
    "dưới": 339,
    "dường": 340,
    "dưỡng": 341,
    "dạ": 342,
    "dấu": 343,
    "dần": 344,
    "dầu": 345,
    "dẫn": 346,
    "dậy": 347,
    "dễ": 348,
    "dị": 349,
    "dịch": 350,
    "dọc": 351,
    "dọn": 352,
    "dụ": 353,
    "dụng": 354,
    "dứt": 355,
    "dừng": 356,
    "dữ": 357,
    "dự": 358,
    "dựng": 359,
    "e": 360,
    "each": 361,
    "ear": 362,
    "earth": 363,
    "ed": 364,
    "ef": 365,
    "ei": 366,
    "el": 367,
    "em": 368,
    "en": 369,
    "ence": 370,
    "end": 371,
    "enough": 372,
    "ent": 373,
    "ep": 374,
    "er": 375,
    "es": 376,
    "et": 377,
    "eu": 378,
    "even": 379,
    "ever": 380,
    "every": 381,
    "everything": 382,
    "ex": 383,
    "exc": 384,
    "exp": 385,
    "eye": 386,
    "eyes": 387,
    "f": 388,
    "fa": 389,
    "face": 390,
    "fact": 391,
    "fair": 392,
    "fami": 393,
    "family": 394,
    "fan": 395,
    "far": 396,
    "father": 397,
    "fe": 398,
    "fect": 399,
    "feel": 400,
    "feet": 401,
    "few": 402,
    "fi": 403,
    "find": 404,
    "first": 405,
    "five": 406,
    "flo": 407,
    "fo": 408,
    "follo": 409,
    "foo": 410,
    "foot": 411,
    "for": 412,
    "ford": 413,
    "form": 414,
    "fort": 415,
    "found": 416,
    "fran": 417,
    "fri": 418,
    "friend": 419,
    "from": 420,
    "fron": 421,
    "fu": 422,
    "ful": 423,
    "fur": 424,
    "g": 425,
    "ga": 426,
    "gave": 427,
    "ge": 428,
    "gh": 429,
    "ght": 430,
    "ghét": 431,
    "ghế": 432,
    "gi": 433,
    "gia": 434,
    "giao": 435,
    "girl": 436,
    "give": 437,
    "già": 438,
    "giá": 439,
    "giây": 440,
    "gió": 441,
    "giúp": 442,
    "giường": 443,
    "giả": 444,
    "giải": 445,
    "giấc": 446,
    "giấu": 447,
    "giấy": 448,
    "giận": 449,
    "giật": 450,
    "giặc": 451,
    "giết": 452,
    "giọng": 453,
    "giỏi": 454,
    "giống": 455,
    "giới": 456,
    "giờ": 457,
    "giữ": 458,
    "giữa": 459,
    "glad": 460,
    "gn": 461,
    "go": 462,
    "going": 463,
    "good": 464,
    "got": 465,
    "gra": 466,
    "gre": 467,
    "great": 468,
    "ground": 469,
    "gs": 470,
    "gu": 471,
    "gy": 472,
    "gà": 473,
    "gái": 474,
    "gây": 475,
    "gã": 476,
    "gì": 477,
    "gòn": 478,
    "góc": 479,
    "góp": 480,
    "gương": 481,
    "gạo": 482,
    "gấp": 483,
    "gần": 484,
    "gắn": 485,
    "gắng": 486,
    "gặp": 487,
    "gọi": 488,
    "gốc": 489,
    "gồm": 490,
    "gỗ": 491,
    "gửi": 492,
    "h": 493,
    "ha": 494,
    "had": 495,
    "hai": 496,
    "half": 497,
    "have": 498,
    "having": 499,
    "he": 500,
    "hea": 501,
    "head": 502,
    "heart": 503,
    "help": 504,
    "herself": 505,
    "hi": 506,
    "high": 507,
    "him": 508,
    "himself": 509,
    "hind": 510,
    "hiến": 511,
    "hiền": 512,
    "hiểm": 513,
    "hiểu": 514,
    "hiệp": 515,
    "hiệu": 516,
    "ho": 517,
    "hoa": 518,
    "horse": 519,
    "how": 520,
    "hoài": 521,
    "hoàn": 522,
    "hoá": 523,
    "hoạch": 524,
    "hoạt": 525,
    "hoảng": 526,
    "hoặc": 527,
    "hu": 528,
    "hundred": 529,
    "hur": 530,
    "huyền": 531,
    "huệ": 532,
    "hy": 533,
    "hà": 534,
    "hàm": 535,
    "hàng": 536,
    "hành": 537,
    "hán": 538,
    "hát": 539,
    "hã": 540,
    "hãy": 541,
    "hình": 542,
    "hòa": 543,
    "hóa": 544,
    "hôm": 545,
    "hôn": 546,
    "hùng": 547,
    "hút": 548,
    "hơi": 549,
    "hơn": 550,
    "hương": 551,
    "hướng": 552,
    "hưởng": 553,
    "hạ": 554,
    "hạn": 555,
    "hả": 556,
    "hấp": 557,
    "hầm": 558,
    "hầu": 559,
    "hậu": 560,
    "hắn": 561,
    "hằng": 562,
    "hẳn": 563,
    "hẹn": 564,
    "hết": 565,
    "hề": 566,
    "hệ": 567,
    "họ": 568,
    "học": 569,
    "họp": 570,
    "hỏi": 571,
    "hồ": 572,
    "hồi": 573,
    "hổ": 574,
    "hỗ": 575,
    "hộ": 576,
    "hội": 577,
    "hộp": 578,
    "hợp": 579,
    "hứa": 580,
    "hứng": 581,
    "hữu": 582,
    "i": 583,
    "i'": 584,
    "i'll": 585,
    "i'm": 586,
    "id": 587,
    "idea": 588,
    "if": 589,
    "im": 590,
    "in": 591,
    "indeed": 592,
    "indi": 593,
    "inter": 594,
    "into": 595,
    "ir": 596,
    "is": 597,
    "it": 598,
    "it's": 599,
    "iệ": 600,
    "j": 601,
    "je": 602,
    "ject": 603,
    "jo": 604,
    "john": 605,
    "joy": 606,
    "ju": 607,
    "k": 608,
    "ke": 609,
    "keep": 610,
    "kept": 611,
    "kh": 612,
    "khiến": 613,
    "khoản": 614,
    "khoảng": 615,
    "khuôn": 616,
    "khá": 617,
    "khác": 618,
    "khí": 619,
    "khó": 620,
    "khô": 621,
    "không": 622,
    "khăn": 623,
    "khả": 624,
    "khẩu": 625,
    "khắc": 626,
    "khắp": 627,
    "khỏ": 628,
    "khỏe": 629,
    "khối": 630,
    "khổ": 631,
    "khởi": 632,
    "khủng": 633,
    "ki": 634,
    "kia": 635,
    "kind": 636,
    "kiên": 637,
    "kiếm": 638,
    "kiến": 639,
    "kiểm": 640,
    "kiểu": 641,
    "knew": 642,
    "know": 643,
    "ks": 644,
    "kém": 645,
    "kéo": 646,
    "kép": 647,
    "kêu": 648,
    "kí": 649,
    "kích": 650,
    "kín": 651,
    "kính": 652,
    "ký": 653,
    "kẻ": 654,
    "kế": 655,
    "kết": 656,
    "kể": 657,
    "kịp": 658,
    "kỳ": 659,
    "kỷ": 660,
    "kỹ": 661,
    "l": 662,
    "la": 663,
    "lady": 664,
    "lao": 665,
    "large": 666,
    "law": 667,
    "ld": 668,
    "le": 669,
    "lea": 670,
    "leave": 671,
    "left": 672,
    "leo": 673,
    "less": 674,
    "letter": 675,
    "li": 676,
    "lied": 677,
    "light": 678,
    "like": 679,
    "lip": 680,
    "lish": 681,
    "little": 682,
    "live": 683,
    "liên": 684,
    "liền": 685,
    "liệu": 686,
    "ll": 687,
    "lo": 688,
    "look": 689,
    "lord": 690,
    "lost": 691,
    "love": 692,
    "low": 693,
    "loài": 694,
    "loại": 695,
    "loạn": 696,
    "ls": 697,
    "lt": 698,
    "lu": 699,
    "lui": 700,
    "luyện": 701,
    "luôn": 702,
    "luận": 703,
    "luật": 704,
    "ly": 705,
    "là": 706,
    "làm": 707,
    "lá": 708,
    "lâm": 709,
    "lâu": 710,
    "lã": 711,
    "lãnh": 712,
    "lão": 713,
    "lê": 714,
    "lên": 715,
    "lí": 716,
    "lính": 717,
    "lòng": 718,
    "lôi": 719,
    "lúa": 720,
    "lúc": 721,
    "lý": 722,
    "lăm": 723,
    "lĩnh": 724,
    "lũ": 725,
    "lưng": 726,
    "lưu": 727,
    "lương": 728,
    "lược": 729,
    "lượng": 730,
    "lượt": 731,
    "lạ": 732,
    "lại": 733,
    "lấy": 734,
    "lầm": 735,
    "lần": 736,
    "lẫn": 737,
    "lập": 738,
    "lắm": 739,
    "lắng": 740,
    "lặng": 741,
    "lẻ": 742,
    "lẽ": 743,
    "lễ": 744,
    "lệ": 745,
    "lịch": 746,
    "lối": 747,
    "lỗ": 748,
    "lỗi": 749,
    "lộ": 750,
    "lớ": 751,
    "lớn": 752,
    "lớp": 753,
    "lời": 754,
    "lợi": 755,
    "lục": 756,
    "lừa": 757,
    "lửa": 758,
    "lựa": 759,
    "lực": 760,
    "m": 761,
    "ma": 762,
    "make": 763,
    "man": 764,
    "manner": 765,
    "matter": 766,
    "mber": 767,
    "me": 768,
    "mean": 769,
    "ment": 770,
    "mi": 771,
    "might": 772,
    "mind": 773,
    "missus": 774,
    "miếng": 775,
    "miền": 776,
    "mo": 777,
    "money": 778,
    "month": 779,
    "morning": 780,
    "most": 781,
    "mp": 782,
    "ms": 783,
    "mu": 784,
    "mua": 785,
    "much": 786,
    "mur": 787,
    "muốn": 788,
    "my": 789,
    "myself": 790,
    "mà": 791,
    "má": 792,
    "máy": 793,
    "mã": 794,
    "mãn": 795,
    "mê": 796,
    "mình": 797,
    "món": 798,
    "mô": 799,
    "môn": 800,
    "mù": 801,
    "mùa": 802,
    "mũ": 803,
    "mũi": 804,
    "mơ": 805,
    "mưa": 806,
    "mưu": 807,
    "mươi": 808,
    "mười": 809,
    "mạc": 810,
    "mạng": 811,
    "mạnh": 812,
    "mảnh": 813,
    "mất": 814,
    "mấy": 815,
    "mẫu": 816,
    "mật": 817,
    "mắc": 818,
    "mắn": 819,
    "mắt": 820,
    "mặc": 821,
    "mặt": 822,
    "mẹ": 823,
    "mẽ": 824,
    "mệnh": 825,
    "mệt": 826,
    "mọi": 827,
    "mối": 828,
    "mốt": 829,
    "mỗi": 830,
    "mộ": 831,
    "một": 832,
    "mới": 833,
    "mờ": 834,
    "mời": 835,
    "mở": 836,
    "mục": 837,
    "mức": 838,
    "mừng": 839,
    "mỹ": 840,
    "n": 841,
    "n't": 842,
    "na": 843,
    "nam": 844,
    "nay": 845,
    "ne": 846,
    "need": 847,
    "ness": 848,
    "never": 849,
    "new": 850,
    "next": 851,
    "ney": 852,
    "ng": 853,
    "nga": 854,
    "ngay": 855,
    "nghiêm": 856,
    "nghiên": 857,
    "nghiệm": 858,
    "nghiệp": 859,
    "nghèo": 860,
    "nghìn": 861,
    "nghĩ": 862,
    "nghĩa": 863,
    "nghỉ": 864,
    "nghị": 865,
    "ngoan": 866,
    "ngoài": 867,
    "ngoại": 868,
    "nguy": 869,
    "nguyên": 870,
    "nguyễn": 871,
    "nguyện": 872,
    "nguồn": 873,
    "ngài": 874,
    "ngàn": 875,
    "ngày": 876,
    "ngân": 877,
    "ngã": 878,
    "ngô": 879,
    "ngôi": 880,
    "ngăn": 881,
    "ngũ": 882,
    "ngươi": 883,
    "người": 884,
    "ngược": 885,
    "ngạc": 886,
    "ngại": 887,
    "ngắn": 888,
    "ngọc": 889,
    "ngọn": 890,
    "ngồi": 891,
    "ngờ": 892,
    "ngụ": 893,
    "ngủ": 894,
    "ngừng": 895,
    "ngữ": 896,
    "ngựa": 897,
    "nh": 898,
    "nhau": 899,
    "nhiên": 900,
    "nhiêu": 901,
    "nhiều": 902,
    "nhiệm": 903,
    "nhuận": 904,
    "nhà": 905,
    "nhân": 906,
    "nhé": 907,
    "nhìn": 908,
    "nhóm": 909,
    "như": 910,
    "nhưng": 911,
    "nhất": 912,
    "nhẫn": 913,
    "nhận": 914,
    "nhập": 915,
    "nhật": 916,
    "nhắc": 917,
    "nhắm": 918,
    "nhằm": 919,
    "nhẹ": 920,
    "nhị": 921,
    "nhỏ": 922,
    "nhớ": 923,
    "nhờ": 924,
    "những": 925,
    "ni": 926,
    "nice": 927,
    "night": 928,
    "niên": 929,
    "niềm": 930,
    "niệm": 931,
    "no": 932,
    "not": 933,
    "now": 934,
    "nu": 935,
    "nuôi": 936,
    "ny": 937,
    "nà": 938,
    "nào": 939,
    "này": 940,
    "nâng": 941,
    "nã": 942,
    "não": 943,
    "nãy": 944,
    "nè": 945,
    "nét": 946,
    "nên": 947,
    "nó": 948,
    "nói": 949,
    "nô": 950,
    "nông": 951,
    "núi": 952,
    "năm": 953,
    "năng": 954,
    "nơi": 955,
    "nước": 956,
    "nạn": 957,
    "nấu": 958,
    "nầy": 959,
    "nắm": 960,
    "nắng": 961,
    "nằm": 962,
    "nặng": 963,
    "nếu": 964,
    "nền": 965,
    "nọ": 966,
    "nối": 967,
    "nổ": 968,
    "nổi": 969,
    "nỗ": 970,
    "nỗi": 971,
    "nội": 972,
    "nợ": 973,
    "nửa": 974,
    "nữ": 975,
    "nữa": 976,
    "o": 977,
    "ob": 978,
    "obser": 979,
    "oc": 980,
    "od": 981,
    "of": 982,
    "off": 983,
    "often": 984,
    "oh": 985,
    "ok": 986,
    "ol": 987,
    "old": 988,
    "om": 989,
    "on": 990,
    "once": 991,
    "only": 992,
    "ons": 993,
    "op": 994,
    "or": 995,
    "order": 996,
    "other": 997,
    "others": 998,
    "ou": 999,
    "our": 1000,
    "ous": 1001,
    "ously": 1002,
    "out": 1003,
    "over": 1004,
    "own": 1005,
    "p": 1006,
    "pain": 1007,
    "paper": 1008,
    "par": 1009,
    "part": 1010,
    "pas": 1011,
    "pe": 1012,
    "peo": 1013,
    "people": 1014,
    "perhaps": 1015,
    "person": 1016,
    "ph": 1017,
    "phiếu": 1018,
    "phá": 1019,
    "pháp": 1020,
    "phát": 1021,
    "phân": 1022,
    "phép": 1023,
    "phê": 1024,
    "phí": 1025,
    "phía": 1026,
    "phòng": 1027,
    "phó": 1028,
    "phóng": 1029,
    "phù": 1030,
    "phú": 1031,
    "phúc": 1032,
    "phút": 1033,
    "phương": 1034,
    "phải": 1035,
    "phản": 1036,
    "phần": 1037,
    "phẩm": 1038,
    "phận": 1039,
    "phật": 1040,
    "phố": 1041,
    "phổ": 1042,
    "phụ": 1043,
    "phủ": 1044,
    "phức": 1045,
    "pi": 1046,
    "pie": 1047,
    "place": 1048,
    "play": 1049,
    "ple": 1050,
    "po": 1051,
    "poin": 1052,
    "point": 1053,
    "poor": 1054,
    "pos": 1055,
    "possible": 1056,
    "power": 1057,
    "pped": 1058,
    "pre": 1059,
    "pres": 1060,
    "pretty": 1061,
    "pri": 1062,
    "prin": 1063,
    "prince": 1064,
    "pro": 1065,
    "ps": 1066,
    "pu": 1067,
    "pur": 1068,
    "put": 1069,
    "py": 1070,
    "q": 1071,
    "qu": 1072,
    "qua": 1073,
    "quan": 1074,
    "que": 1075,
    "quen": 1076,
    "qui": 1077,
    "quick": 1078,
    "quyết": 1079,
    "quyền": 1080,
    "quyển": 1081,
    "quá": 1082,
    "quân": 1083,
    "quê": 1084,
    "quên": 1085,
    "quý": 1086,
    "quả": 1087,
    "quần": 1088,
    "quốc": 1089,
    "r": 1090,
    "ra": 1091,
    "re": 1092,
    "read": 1093,
    "ready": 1094,
    "really": 1095,
    "reason": 1096,
    "recei": 1097,
    "ree": 1098,
    "replied": 1099,
    "ri": 1100,
    "ried": 1101,
    "right": 1102,
    "river": 1103,
    "riêng": 1104,
    "ro": 1105,
    "road": 1106,
    "rom": 1107,
    "room": 1108,
    "rose": 1109,
    "ross": 1110,
    "rough": 1111,
    "round": 1112,
    "row": 1113,
    "ru": 1114,
    "ruột": 1115,
    "ry": 1116,
    "ràng": 1117,
    "rõ": 1118,
    "rút": 1119,
    "rơi": 1120,
    "rượ": 1121,
    "rượu": 1122,
    "rất": 1123,
    "rằng": 1124,
    "rối": 1125,
    "rồi": 1126,
    "rộng": 1127,
    "rời": 1128,
    "rủi": 1129,
    "rừng": 1130,
    "s": 1131,
    "sa": 1132,
    "sao": 1133,
    "sau": 1134,
    "saw": 1135,
    "saying": 1136,
    "says": 1137,
    "scar": 1138,
    "se": 1139,
    "sea": 1140,
    "secon": 1141,
    "second": 1142,
    "see": 1143,
    "sel": 1144,
    "self": 1145,
    "sense": 1146,
    "sent": 1147,
    "sh": 1148,
    "shall": 1149,
    "she": 1150,
    "shi": 1151,
    "ship": 1152,
    "sho": 1153,
    "short": 1154,
    "shou": 1155,
    "should": 1156,
    "si": 1157,
    "sight": 1158,
    "since": 1159,
    "sion": 1160,
    "six": 1161,
    "siêu": 1162,
    "sle": 1163,
    "slow": 1164,
    "small": 1165,
    "smi": 1166,
    "so": 1167,
    "some": 1168,
    "soon": 1169,
    "sort": 1170,
    "soul": 1171,
    "soát": 1172,
    "sp": 1173,
    "speak": 1174,
    "ss": 1175,
    "st": 1176,
    "still": 1177,
    "su": 1178,
    "sub": 1179,
    "suc": 1180,
    "such": 1181,
    "sud": 1182,
    "sudden": 1183,
    "suddenly": 1184,
    "suf": 1185,
    "sum": 1186,
    "suppose": 1187,
    "sur": 1188,
    "suất": 1189,
    "suốt": 1190,
    "swe": 1191,
    "sy": 1192,
    "sài": 1193,
    "sàng": 1194,
    "sách": 1195,
    "sáng": 1196,
    "sát": 1197,
    "sáu": 1198,
    "sân": 1199,
    "sâu": 1200,
    "sóc": 1201,
    "sóng": 1202,
    "sông": 1203,
    "súng": 1204,
    "sĩ": 1205,
    "sơ": 1206,
    "sơn": 1207,
    "sư": 1208,
    "sạch": 1209,
    "sản": 1210,
    "sắc": 1211,
    "sắp": 1212,
    "sắt": 1213,
    "sẵn": 1214,
    "sẻ": 1215,
    "sẽ": 1216,
    "số": 1217,
    "sống": 1218,
    "sổ": 1219,
    "sớm": 1220,
    "sở": 1221,
    "sợ": 1222,
    "sứ": 1223,
    "sức": 1224,
    "sử": 1225,
    "sự": 1226,
    "t": 1227,
    "ta": 1228,
    "take": 1229,
    "talk": 1230,
    "tao": 1231,
    "te": 1232,
    "ter": 1233,
    "th": 1234,
    "thao": 1235,
    "that's": 1236,
    "the": 1237,
    "thee": 1238,
    "their": 1239,
    "themselves": 1240,
    "theo": 1241,
    "they": 1242,
    "things": 1243,
    "think": 1244,
    "thiên": 1245,
    "thiết": 1246,
    "thiếu": 1247,
    "those": 1248,
    "though": 1249,
    "thought": 1250,
    "thoát": 1251,
    "thoại": 1252,
    "thoải": 1253,
    "three": 1254,
    "through": 1255,
    "thu": 1256,
    "thua": 1257,
    "thuyết": 1258,
    "thuyền": 1259,
    "thuê": 1260,
    "thuận": 1261,
    "thuật": 1262,
    "thuế": 1263,
    "thuốc": 1264,
    "thuộc": 1265,
    "thành": 1266,
    "thách": 1267,
    "thái": 1268,
    "tháng": 1269,
    "thánh": 1270,
    "tháp": 1271,
    "thân": 1272,
    "thêm": 1273,
    "thì": 1274,
    "thí": 1275,
    "thích": 1276,
    "thói": 1277,
    "thôi": 1278,
    "thông": 1279,
    "thù": 1280,
    "thú": 1281,
    "thúc": 1282,
    "thăm": 1283,
    "thơ": 1284,
    "thư": 1285,
    "thương": 1286,
    "thường": 1287,
    "thấp": 1288,
    "thất": 1289,
    "thấy": 1290,
    "thần": 1291,
    "thầy": 1292,
    "thậm": 1293,
    "thận": 1294,
    "thập": 1295,
    "thật": 1296,
    "thằng": 1297,
    "thẳng": 1298,
    "thế": 1299,
    "thể": 1300,
    "thị": 1301,
    "thịt": 1302,
    "thỏa": 1303,
    "thống": 1304,
    "thổ": 1305,
    "thờ": 1306,
    "thời": 1307,
    "thở": 1308,
    "thợ": 1309,
    "thụ": 1310,
    "thủ": 1311,
    "thứ": 1312,
    "thừa": 1313,
    "thử": 1314,
    "thực": 1315,
    "ti": 1316,
    "til": 1317,
    "time": 1318,
    "tion": 1319,
    "tiên": 1320,
    "tiêu": 1321,
    "tiếc": 1322,
    "tiến": 1323,
    "tiếng": 1324,
    "tiếp": 1325,
    "tiết": 1326,
    "tiềm": 1327,
    "tiền": 1328,
    "tiểu": 1329,
    "tle": 1330,
    "tly": 1331,
    "to": 1332,
    "together": 1333,
    "too": 1334,
    "towards": 1335,
    "toàn": 1336,
    "toán": 1337,
    "tr": 1338,
    "trao": 1339,
    "triết": 1340,
    "triều": 1341,
    "triển": 1342,
    "triệu": 1343,
    "trong": 1344,
    "true": 1345,
    "trung": 1346,
    "truth": 1347,
    "truyền": 1348,
    "trà": 1349,
    "trách": 1350,
    "trái": 1351,
    "tránh": 1352,
    "trên": 1353,
    "trì": 1354,
    "trình": 1355,
    "trí": 1356,
    "trò": 1357,
    "trôi": 1358,
    "trông": 1359,
    "trùng": 1360,
    "trăm": 1361,
    "trương": 1362,
    "trước": 1363,
    "trường": 1364,
    "trưởng": 1365,
    "trại": 1366,
    "trạng": 1367,
    "trả": 1368,
    "trấn": 1369,
    "trần": 1370,
    "trận": 1371,
    "trắng": 1372,
    "trẻ": 1373,
    "trị": 1374,
    "trịnh": 1375,
    "trọng": 1376,
    "trốn": 1377,
    "trời": 1378,
    "trở": 1379,
    "trợ": 1380,
    "trụ": 1381,
    "trừ": 1382,
    "trực": 1383,
    "ts": 1384,
    "tu": 1385,
    "tur": 1386,
    "turn": 1387,
    "turned": 1388,
    "tuyết": 1389,
    "tuyển": 1390,
    "tuyệt": 1391,
    "tuần": 1392,
    "tuổi": 1393,
    "twenty": 1394,
    "two": 1395,
    "ty": 1396,
    "tài": 1397,
    "tàn": 1398,
    "tàu": 1399,
    "tá": 1400,
    "tác": 1401,
    "tám": 1402,
    "tâm": 1403,
    "tân": 1404,
    "tây": 1405,
    "tên": 1406,
    "tìm": 1407,
    "tình": 1408,
    "tí": 1409,
    "tích": 1410,
    "tín": 1411,
    "tính": 1412,
    "tòa": 1413,
    "tòng": 1414,
    "tóc": 1415,
    "tô": 1416,
    "tôi": 1417,
    "tôn": 1418,
    "tù": 1419,
    "tùy": 1420,
    "tú": 1421,
    "túi": 1422,
    "tăng": 1423,
    "tĩnh": 1424,
    "tư": 1425,
    "tại": 1426,
    "tạm": 1427,
    "tạo": 1428,
    "tạp": 1429,
    "tả": 1430,
    "tấm": 1431,
    "tấn": 1432,
    "tất": 1433,
    "tầm": 1434,
    "tần": 1435,
    "tận": 1436,
    "tập": 1437,
    "tắc": 1438,
    "tặng": 1439,
    "tế": 1440,
    "tề": 1441,
    "tệ": 1442,
    "tỉnh": 1443,
    "tỏ": 1444,
    "tố": 1445,
    "tối": 1446,
    "tốt": 1447,
    "tồn": 1448,
    "tổ": 1449,
    "tổng": 1450,
    "tộc": 1451,
    "tội": 1452,
    "tớ": 1453,
    "tới": 1454,
    "tờ": 1455,
    "tục": 1456,
    "tụi": 1457,
    "tức": 1458,
    "từ": 1459,
    "tử": 1460,
    "tự": 1461,
    "tỷ": 1462,
    "u": 1463,
    "uk": 1464,
    "ukraina": 1465,
    "un": 1466,
    "under": 1467,
    "understand": 1468,
    "ung": 1469,
    "until": 1470,
    "up": 1471,
    "us": 1472,
    "uy": 1473,
    "uống": 1474,
    "v": 1475,
    "va": 1476,
    "vai": 1477,
    "val": 1478,
    "van": 1479,
    "ve": 1480,
    "very": 1481,
    "vi": 1482,
    "vice": 1483,
    "vie": 1484,
    "viên": 1485,
    "viết": 1486,
    "việ": 1487,
    "việc": 1488,
    "vo": 1489,
    "voi": 1490,
    "voice": 1491,
    "vu": 1492,
    "vua": 1493,
    "vui": 1494,
    "vy": 1495,
    "và": 1496,
    "vào": 1497,
    "vân": 1498,
    "vê": 1499,
    "vì": 1500,
    "ví": 1501,
    "vòng": 1502,
    "vô": 1503,
    "võ": 1504,
    "vùng": 1505,
    "văn": 1506,
    "vĩ": 1507,
    "vũ": 1508,
    "vương": 1509,
    "vườn": 1510,
    "vượt": 1511,
    "vạn": 1512,
    "vả": 1513,
    "vấn": 1514,
    "vẫn": 1515,
    "vận": 1516,
    "vật": 1517,
    "vậy": 1518,
    "vẻ": 1519,
    "vẽ": 1520,
    "vết": 1521,
    "về": 1522,
    "vệ": 1523,
    "vị": 1524,
    "vọng": 1525,
    "vốn": 1526,
    "vội": 1527,
    "với": 1528,
    "vời": 1529,
    "vỡ": 1530,
    "vợ": 1531,
    "vụ": 1532,
    "vừa": 1533,
    "vững": 1534,
    "vực": 1535,
    "w": 1536,
    "wal": 1537,
    "want": 1538,
    "war": 1539,
    "ward": 1540,
    "was": 1541,
    "wat": 1542,
    "water": 1543,
    "way": 1544,
    "ways": 1545,
    "we": 1546,
    "we'": 1547,
    "wee": 1548,
    "well": 1549,
    "went": 1550,
    "what": 1551,
    "when": 1552,
    "where": 1553,
    "whether": 1554,
    "whi": 1555,
    "which": 1556,
    "while": 1557,
    "who": 1558,
    "whole": 1559,
    "whose": 1560,
    "why": 1561,
    "wi": 1562,
    "will": 1563,
    "windo": 1564,
    "window": 1565,
    "wish": 1566,
    "with": 1567,
    "wn": 1568,
    "wo": 1569,
    "wonder": 1570,
    "wood": 1571,
    "wor": 1572,
    "word": 1573,
    "work": 1574,
    "world": 1575,
    "wou": 1576,
    "would": 1577,
    "ws": 1578,
    "x": 1579,
    "xa": 1580,
    "xe": 1581,
    "xem": 1582,
    "xi": 1583,
    "xin": 1584,
    "xo": 1585,
    "xong": 1586,
    "xu": 1587,
    "xuân": 1588,
    "xuất": 1589,
    "xuống": 1590,
    "xác": 1591,
    "xây": 1592,
    "xã": 1593,
    "xét": 1594,
    "xô": 1595,
    "xúc": 1596,
    "xưa": 1597,
    "xương": 1598,
    "xảy": 1599,
    "xấu": 1600,
    "xếp": 1601,
    "xứ": 1602,
    "xứng": 1603,
    "xử": 1604,
    "y": 1605,
    "ye": 1606,
    "year": 1607,
    "years": 1608,
    "yes": 1609,
    "yet": 1610,
    "yon": 1611,
    "you": 1612,
    "you'": 1613,
    "your": 1614,
    "yên": 1615,
    "yêu": 1616,
    "yếu": 1617,
    "z": 1618,
    "ze": 1619,
    "à": 1620,
    "ài": 1621,
    "àn": 1622,
    "ành": 1623,
    "ào": 1624,
    "àu": 1625,
    "ày": 1626,
    "á": 1627,
    "ác": 1628,
    "ái": 1629,
    "ám": 1630,
    "án": 1631,
    "áo": 1632,
    "áp": 1633,
    "át": 1634,
    "áu": 1635,
    "áy": 1636,
    "â": 1637,
    "âm": 1638,
    "ân": 1639,
    "âu": 1640,
    "ây": 1641,
    "ã": 1642,
    "ãi": 1643,
    "ãn": 1644,
    "è": 1645,
    "èm": 1646,
    "èn": 1647,
    "èo": 1648,
    "é": 1649,
    "ém": 1650,
    "én": 1651,
    "éo": 1652,
    "ép": 1653,
    "ét": 1654,
    "ê": 1655,
    "êm": 1656,
    "ên": 1657,
    "êu": 1658,
    "ì": 1659,
    "ìa": 1660,
    "ìm": 1661,
    "ìn": 1662,
    "ình": 1663,
    "í": 1664,
    "ích": 1665,
    "ính": 1666,
    "ít": 1667,
    "ò": 1668,
    "òa": 1669,
    "òi": 1670,
    "òn": 1671,
    "ó": 1672,
    "óa": 1673,
    "óc": 1674,
    "ói": 1675,
    "óm": 1676,
    "ón": 1677,
    "óng": 1678,
    "óp": 1679,
    "ót": 1680,
    "ô": 1681,
    "ôi": 1682,
    "ôm": 1683,
    "ôn": 1684,
    "ông": 1685,
    "õ": 1686,
    "õi": 1687,
    "ù": 1688,
    "ùa": 1689,
    "ùi": 1690,
    "ùm": 1691,
    "ùng": 1692,
    "ú": 1693,
    "úa": 1694,
    "úc": 1695,
    "úi": 1696,
    "úng": 1697,
    "úp": 1698,
    "út": 1699,
    "ý": 1700,
    "ă": 1701,
    "ăm": 1702,
    "ăn": 1703,
    "đ": 1704,
    "đa": 1705,
    "đang": 1706,
    "đau": 1707,
    "đe": 1708,
    "đem": 1709,
    "đen": 1710,
    "đi": 1711,
    "điên": 1712,
    "điền": 1713,
    "điều": 1714,
    "điểm": 1715,
    "điệp": 1716,
    "đo": 1717,
    "đoàn": 1718,
    "đoán": 1719,
    "đoạn": 1720,
    "đu": 1721,
    "đuổi": 1722,
    "đà": 1723,
    "đài": 1724,
    "đàn": 1725,
    "đào": 1726,
    "đá": 1727,
    "đâu": 1728,
    "đây": 1729,
    "đã": 1730,
    "đèn": 1731,
    "đêm": 1732,
    "đình": 1733,
    "đích": 1734,
    "đòi": 1735,
    "đó": 1736,
    "đô": 1737,
    "đôi": 1738,
    "đông": 1739,
    "đúng": 1740,
    "đơn": 1741,
    "đưa": 1742,
    "đương": 1743,
    "đường": 1744,
    "được": 1745,
    "đại": 1746,
    "đạn": 1747,
    "đạo": 1748,
    "đạt": 1749,
    "đảm": 1750,
    "đảng": 1751,
    "đảo": 1752,
    "đất": 1753,
    "đấu": 1754,
    "đấy": 1755,
    "đầu": 1756,
    "đầy": 1757,
    "đẩy": 1758,
    "đập": 1759,
    "đằng": 1760,
    "đặc": 1761,
    "đặt": 1762,
    "đẹp": 1763,
    "đế": 1764,
    "đến": 1765,
    "đề": 1766,
    "đều": 1767,
    "để": 1768,
    "đệ": 1769,
    "đỉnh": 1770,
    "đị": 1771,
    "địa": 1772,
    "định": 1773,
    "đọc": 1774,
    "đỏ": 1775,
    "đốc": 1776,
    "đối": 1777,
    "đốt": 1778,
    "đồ": 1779,
    "đồng": 1780,
    "đổ": 1781,
    "đổi": 1782,
    "đỗ": 1783,
    "độ": 1784,
    "động": 1785,
    "đời": 1786,
    "đỡ": 1787,
    "đợi": 1788,
    "đủ": 1789,
    "đứa": 1790,
    "đức": 1791,
    "đứng": 1792,
    "đừng": 1793,
    "đựng": 1794,
    "ĩ": 1795,
    "ĩnh": 1796,
    "ũ": 1797,
    "ũng": 1798,
    "ơ": 1799,
    "ơi": 1800,
    "ơn": 1801,
    "ư": 1802,
    "ưa": 1803,
    "ưng": 1804,
    "ưu": 1805,
    "ươ": 1806,
    "ương": 1807,
    "ướ": 1808,
    "ước": 1809,
    "ướng": 1810,
    "ườ": 1811,
    "ười": 1812,
    "ườn": 1813,
    "ường": 1814,
    "ưởng": 1815,
    "ưỡ": 1816,
    "ưỡi": 1817,
    "ưỡng": 1818,
    "ượ": 1819,
    "ược": 1820,
    "ượn": 1821,
    "ượng": 1822,
    "ượt": 1823,
    "ạ": 1824,
    "ạc": 1825,
    "ại": 1826,
    "ạm": 1827,
    "ạn": 1828,
    "ạo": 1829,
    "ạp": 1830,
    "ạt": 1831,
    "ạy": 1832,
    "ả": 1833,
    "ải": 1834,
    "ảm": 1835,
    "ản": 1836,
    "ảo": 1837,
    "ảy": 1838,
    "ấ": 1839,
    "ấc": 1840,
    "ấm": 1841,
    "ấn": 1842,
    "ấp": 1843,
    "ất": 1844,
    "ấu": 1845,
    "ấy": 1846,
    "ầ": 1847,
    "ầm": 1848,
    "ần": 1849,
    "ầu": 1850,
    "ầy": 1851,
    "ẩ": 1852,
    "ẩm": 1853,
    "ẩn": 1854,
    "ẩu": 1855,
    "ẩy": 1856,
    "ẫ": 1857,
    "ẫm": 1858,
    "ẫn": 1859,
    "ẫu": 1860,
    "ẫy": 1861,
    "ậ": 1862,
    "ậc": 1863,
    "ậm": 1864,
    "ận": 1865,
    "ập": 1866,
    "ật": 1867,
    "ậu": 1868,
    "ậy": 1869,
    "ắ": 1870,
    "ắc": 1871,
    "ắm": 1872,
    "ắn": 1873,
    "ắp": 1874,
    "ắt": 1875,
    "ằ": 1876,
    "ằm": 1877,
    "ằn": 1878,
    "ằng": 1879,
    "ẳ": 1880,
    "ẳn": 1881,
    "ẳng": 1882,
    "ẵ": 1883,
    "ẵn": 1884,
    "ặ": 1885,
    "ặc": 1886,
    "ặm": 1887,
    "ặn": 1888,
    "ặng": 1889,
    "ặp": 1890,
    "ặt": 1891,
    "ẹ": 1892,
    "ẹn": 1893,
    "ẹp": 1894,
    "ẻ": 1895,
    "ẽ": 1896,
    "ế": 1897,
    "ếc": 1898,
    "ếm": 1899,
    "ến": 1900,
    "ếp": 1901,
    "ết": 1902,
    "ếu": 1903,
    "ề": 1904,
    "ềm": 1905,
    "ền": 1906,
    "ều": 1907,
    "ể": 1908,
    "ểm": 1909,
    "ển": 1910,
    "ểu": 1911,
    "ễ": 1912,
    "ễn": 1913,
    "ễu": 1914,
    "ệ": 1915,
    "ện": 1916,
    "ệt": 1917,
    "ỉ": 1918,
    "ỉnh": 1919,
    "ị": 1920,
    "ịch": 1921,
    "ịp": 1922,
    "ọ": 1923,
    "ọa": 1924,
    "ọc": 1925,
    "ọi": 1926,
    "ọn": 1927,
    "ọng": 1928,
    "ọt": 1929,
    "ỏ": 1930,
    "ỏa": 1931,
    "ỏi": 1932,
    "ỏng": 1933,
    "ố": 1934,
    "ốc": 1935,
    "ối": 1936,
    "ốn": 1937,
    "ống": 1938,
    "ốt": 1939,
    "ồ": 1940,
    "ồi": 1941,
    "ồm": 1942,
    "ồn": 1943,
    "ồng": 1944,
    "ổ": 1945,
    "ổi": 1946,
    "ổn": 1947,
    "ỗ": 1948,
    "ỗi": 1949,
    "ỗng": 1950,
    "ộ": 1951,
    "ộc": 1952,
    "ội": 1953,
    "ộm": 1954,
    "ộn": 1955,
    "ộng": 1956,
    "ột": 1957,
    "ớ": 1958,
    "ới": 1959,
    "ớm": 1960,
    "ớn": 1961,
    "ớt": 1962,
    "ờ": 1963,
    "ời": 1964,
    "ở": 1965,
    "ởi": 1966,
    "ởng": 1967,
    "ỡ": 1968,
    "ợ": 1969,
    "ợi": 1970,
    "ợp": 1971,
    "ụ": 1972,
    "ục": 1973,
    "ụi": 1974,
    "ụng": 1975,
    "ụp": 1976,
    "ủ": 1977,
    "ủa": 1978,
    "ủi": 1979,
    "ủng": 1980,
    "ủy": 1981,
    "ứ": 1982,
    "ứa": 1983,
    "ức": 1984,
    "ứng": 1985,
    "ứt": 1986,
    "ừ": 1987,
    "ừa": 1988,
    "ừng": 1989,
    "ử": 1990,
    "ửa": 1991,
    "ửi": 1992,
    "ữ": 1993,
    "ữa": 1994,
    "ững": 1995,
    "ữu": 1996,
    "ự": 1997,
    "ựa": 1998,
    "ực": 1999,
    "ựng": 2000,
    "ỳ": 2001,
    "ỵ": 2002,
    "ỷ": 2003,
    "ỹ": 2004,
    "�": 2005
  }
}