<pad>	0
<unk>	0
<s>	0
</s>	0
▁t	-0
ng	-1
▁c	-2
▁th	-3
▁đ	-4
▁n	-5
▁h	-6
▁m	-7
▁l	-8
▁b	-9
▁s	-10
▁v	-11
▁a	-12
▁ch	-13
▁k	-14
nh	-15
▁nh	-16
▁g	-17
▁tr	-18
▁the	-19
▁ng	-20
▁kh	-21
▁d	-22
▁p	-23
▁w	-24
er	-25
▁r	-26
▁i	-27
▁o	-28
ông	-29
nd	-30
▁là	-31
▁ph	-32
ed	-33
▁gi	-34
▁và	-35
ou	-36
ời	-37
on	-38
en	-39
ên	-40
qu	-41
▁f	-42
▁qu	-43
ột	-44
at	-45
ác	-46
an	-47
▁một	-48
▁to	-49
▁có	-50
▁ha	-51
▁and	-52
or	-53
es	-54
ôi	-55
iế	-56
▁không	-57
ủa	-58
▁của	-59
▁of	-60
is	-61
iệ	-62
ing	-63
▁x	-64
ười	-65
ới	-66
ar	-67
in	-68
ượ	-69
ll	-70
ong	-71
▁người	-72
ất	-73
ại	-74
▁tôi	-75
it	-76
▁e	-77
ay	-78
ch	-79
▁như	-80
▁in	-81
as	-82
ình	-83
ững	-84
▁sa	-85
▁những	-86
uy	-87
re	-88
ược	-89
iề	-90
▁y	-91
▁nà	-92
ấy	-93
▁nó	-94
▁được	-95
ân	-96
▁các	-97
▁cho	-98
▁ta	-99
▁wh	-100
▁he	-101
▁trong	-102
▁ngh	-103
om	-104
ái	-105
▁mà	-106
▁be	-107
ải	-108
▁đã	-109
▁con	-110
ần	-111
le	-112
ươ	-113
▁ra	-114
ướ	-115
▁đó	-116
▁với	-117
ot	-118
ạn	-119
ow	-120
ut	-121
▁chú	-122
▁đi	-123
iều	-124
▁it	-125
▁sh	-126
▁anh	-127
im	-128
ld	-129
▁họ	-130
▁để	-131
▁lại	-132
▁that	-133
ly	-134
▁cả	-135
ây	-136
▁u	-137
▁thì	-138
ce	-139
id	-140
ến	-141
ống	-142
gh	-143
▁was	-144
ve	-145
iên	-146
se	-147
▁thể	-148
ước	-149
▁cũ	-150
▁khi	-151
▁này	-152
▁làm	-153
▁you	-154
▁on	-155
et	-156
ết	-157
ang	-158
ent	-159
ằng	-160
▁mình	-161
ầu	-162
▁cũng	-163
▁ho	-164
ành	-165
ồi	-166
inh	-167
▁đến	-168
▁phải	-169
▁ở	-170
ăm	-171
▁cái	-172
ườ	-173
ương	-174
iết	-175
▁về	-176
st	-177
ường	-178
âu	-179
ức	-180
▁bạn	-181
ận	-182
ith	-183
▁nói	-184
▁ông	-185
▁for	-186
▁as	-187
▁sẽ	-188
am	-189
▁chúng	-190
▁ba	-191
ài	-192
àn	-193
ối	-194
▁sự	-195
▁his	-196
▁mu	-197
▁vào	-198
ir	-199
àng	-200
ật	-201
ơn	-202
▁st	-203
▁từ	-204
▁việ	-205
ion	-206
▁with	-207
ur	-208
ực	-209
▁nhưng	-210
▁her	-211
ính	-212
▁do	-213
al	-214
▁thế	-215
ốn	-216
▁an	-217
em	-218
ver	-219
ter	-220
▁gì	-221
▁hai	-222
▁em	-223
ad	-224
▁lo	-225
▁độ	-226
òn	-227
▁chỉ	-228
▁công	-229
ản	-230
ght	-231
iến	-232
ăn	-233
▁cu	-234
ùng	-235
anh	-236
▁việc	-237
▁rồi	-238
iể	-239
▁nhà	-240
▁is	-241
▁not	-242
ic	-243
▁đầu	-244
▁had	-245
▁nào	-246
▁thấy	-247
iện	-248
au	-249
▁so	-250
▁còn	-251
▁su	-252
úc	-253
▁re	-254
ưa	-255
ánh	-256
▁biết	-257
át	-258
ậy	-259
▁at	-260
ộc	-261
her	-262
▁but	-263
▁khác	-264
ung	-265
ữa	-266
ould	-267
ắt	-268
▁thành	-269
▁she	-270
▁nhiều	-271
ôn	-272
ess	-273
ăng	-274
ct	-275
▁fr	-276
êu	-277
▁se	-278
▁thu	-279
▁vì	-280
áo	-281
▁trên	-282
án	-283
▁him	-284
ill	-285
ẫn	-286
áng	-287
ain	-288
▁rằng	-289
▁hơn	-290
ếu	-291
ơi	-292
▁we	-293
ày	-294
▁nghĩ	-295
▁bị	-296
▁pr	-297
ai	-298
ặt	-299
ắc	-300
▁vậy	-301
ục	-302
▁năm	-303
▁chuy	-304
▁tiế	-305
▁lên	-306
▁me	-307
▁tư	-308
▁sau	-309
▁đề	-310
ổi	-311
òng	-312
ọi	-313
▁điều	-314
▁lu	-315
▁li	-316
ập	-317
od	-318
ao	-319
ồng	-320
ỏi	-321
▁cách	-322
▁giờ	-323
▁quan	-324
▁đây	-325
âm	-326
iền	-327
▁đị	-328
ốc	-329
▁rất	-330
ích	-331
ere	-332
▁chính	-333
ke	-334
▁nên	-335
▁ấy	-336
ội	-337
▁whi	-338
▁đang	-339
▁cô	-340
▁my	-341
▁hay	-342
ốt	-343
▁ngày	-344
▁nếu	-345
ện	-346
ight	-347
▁trước	-348
ìn	-349
est	-350
▁xu	-351
all	-352
ặc	-353
▁nhất	-354
▁theo	-355
ởng	-356
▁học	-357
▁de	-358
▁all	-359
▁sao	-360
▁they	-361
▁mới	-362
▁tự	-363
▁quy	-364
▁ne	-365
▁nước	-366
▁j	-367
ạo	-368
ck	-369
▁have	-370
iểu	-371
pp	-372
il	-373
ứng	-374
ươi	-375
▁by	-376
ome	-377
ore	-378
▁this	-379
▁muốn	-380
▁said	-381
ấn	-382
ền	-383
ám	-384
ie	-385
▁thời	-386
▁cuộc	-387
▁go	-388
▁chị	-389
▁which	-390
ia	-391
▁nhân	-392
▁sống	-393
ảo	-394
▁up	-395
ỗi	-396
▁quân	-397
ượng	-398
▁động	-399
th	-400
▁lý	-401
ạnh	-402
▁bà	-403
ắn	-404
▁qua	-405
▁nữa	-406
▁or	-407
▁cùng	-408
▁ý	-409
▁nhận	-410
▁bu	-411
ọng	-412
ok	-413
▁định	-414
▁from	-415
áp	-416
êm	-417
▁thực	-418
iệu	-419
▁mươi	-420
▁no	-421
▁cảm	-422
▁kho	-423
▁hàng	-424
▁tại	-425
▁lúc	-426
▁tới	-427
▁số	-428
▁vẫn	-429
▁cứ	-430
▁co	-431
▁hiện	-432
▁one	-433
▁lớ	-434
▁ex	-435
▁chuyện	-436
▁al	-437
ra	-438
▁thứ	-439
ul	-440
ẳng	-441
ừng	-442
▁mặt	-443
▁nguy	-444
▁there	-445
pe	-446
▁man	-447
▁ai	-448
▁bằng	-449
▁mọi	-450
ấp	-451
ạt	-452
▁were	-453
ant	-454
ard	-455
ồn	-456
▁ngo	-457
▁le	-458
os	-459
ửa	-460
ách	-461
▁who	-462
▁tâm	-463
ble	-464
▁tin	-465
▁nhìn	-466
lf	-467
▁di	-468
ous	-469
la	-470
▁gia	-471
▁tay	-472
ấu	-473
ậu	-474
úng	-475
ắng	-476
▁đồng	-477
▁chí	-478
ind	-479
us	-480
▁fe	-481
ầm	-482
▁kn	-483
ảy	-484
▁trăm	-485
ừa	-486
▁trở	-487
▁nhau	-488
▁đâu	-489
▁cần	-490
ri	-491
ers	-492
iệt	-493
▁đối	-494
▁quá	-495
▁bản	-496
art	-497
iêu	-498
▁tuy	-499
ìm	-500
▁bên	-501
ge	-502
▁when	-503
▁hỏi	-504
ảng	-505
our	-506
▁tu	-507
▁ăn	-508
▁nghe	-509
▁lớn	-510
▁cơ	-511
▁đều	-512
▁hã	-513
▁tiền	-514
out	-515
▁them	-516
▁đường	-517
ọn	-518
▁trung	-519
ation	-520
▁what	-521
▁thường	-522
▁thật	-523
ist	-524
ắm	-525
▁nay	-526
▁would	-527
▁tình	-528
▁bao	-529
▁thân	-530
▁nhiên	-531
▁are	-532
▁bắt	-533
▁ma	-534
▁if	-535
ầy	-536
▁trường	-537
▁lời	-538
▁hết	-539
▁chưa	-540
ast	-541
▁tìm	-542
áu	-543
▁br	-544
ol	-545
▁ab	-546
▁đại	-547
▁bộ	-548
ụng	-549
ởi	-550
▁tất	-551
▁thức	-552
▁ro	-553
▁will	-554
iệm	-555
▁năng	-556
ợi	-557
▁kinh	-558
▁câu	-559
▁mẹ	-560
▁vu	-561
ướng	-562
▁out	-563
▁hành	-564
▁tiếng	-565
▁khó	-566
ạc	-567
ff	-568
▁mis	-569
▁wor	-570
▁phần	-571
▁đo	-572
▁hình	-573
▁thôi	-574
el	-575
ound	-576
▁hu	-577
▁sinh	-578
▁lần	-579
▁com	-580
ễn	-581
▁vị	-582
▁tho	-583
▁tiếp	-584
▁their	-585
▁đánh	-586
▁ar	-587
one	-588
▁luôn	-589
itt	-590
▁gian	-591
ough	-592
ệnh	-593
▁int	-594
ate	-595
▁bảo	-596
nt	-597
▁bất	-598
and	-599
▁giới	-600
▁hiểu	-601
▁then	-602
op	-603
▁cao	-604
▁tim	-605
▁chiế	-606
▁tốt	-607
self	-608
▁been	-609
▁quốc	-610
▁can	-611
▁chủ	-612
▁lấy	-613
▁mười	-614
ish	-615
ưởng	-616
ame	-617
ery	-618
ịch	-619
▁chẳng	-620
ạy	-621
own	-622
ap	-623
óng	-624
▁tưởng	-625
▁giá	-626
▁nghĩa	-627
▁chiến	-628
▁đời	-629
▁phát	-630
▁toàn	-631
▁điể	-632
▁sp	-633
▁hội	-634
▁đất	-635
ạng	-636
▁xuống	-637
▁vừa	-638
▁hãy	-639
▁ngoài	-640
▁tính	-641
ven	-642
▁trị	-643
▁trọng	-644
ig	-645
ọc	-646
▁your	-647
▁đúng	-648
ặp	-649
ợp	-650
▁bỏ	-651
▁gre	-652
▁vô	-653
ôm	-654
▁am	-655
▁phí	-656
▁lực	-657
▁hợp	-658
▁yêu	-659
ào	-660
▁giải	-661
um	-662
▁thông	-663
▁could	-664
▁điểm	-665
iệp	-666
▁fa	-667
▁đưa	-668
▁ag	-669
▁viên	-670
ep	-671
▁dụng	-672
▁cổ	-673
▁dân	-674
▁văn	-675
ort	-676
ine	-677
▁hoặc	-678
▁bởi	-679
▁any	-680
▁tử	-681
▁chết	-682
▁more	-683
ity	-684
▁mỗi	-685
ry	-686
▁tw	-687
▁than	-688
▁xem	-689
▁kỳ	-690
▁ever	-691
▁thương	-692
úp	-693
▁some	-694
▁dự	-695
▁kết	-696
▁lòng	-697
ển	-698
▁now	-699
▁thị	-700
ứa	-701
▁quả	-702
▁nơi	-703
▁cậu	-704
▁un	-705
▁sáng	-706
nder	-707
un	-708
ther	-709
▁tiên	-710
ép	-711
▁very	-712
if	-713
▁mắt	-714
óc	-715
ence	-716
▁ngay	-717
▁dư	-718
▁tài	-719
▁thần	-720
▁xin	-721
▁nam	-722
ure	-723
▁im	-724
▁mar	-725
út	-726
ảnh	-727
▁tạo	-728
▁gr	-729
▁la	-730
▁chi	-731
▁thích	-732
ét	-733
▁may	-734
ẩn	-735
▁bốn	-736
▁mấy	-737
ust	-738
▁giáo	-739
▁into	-740
▁chân	-741
▁bình	-742
ice	-743
▁bây	-744
▁tổ	-745
▁gọi	-746
▁chu	-747
lo	-748
▁tên	-749
▁bo	-750
▁quyết	-751
▁look	-752
ộng	-753
uyền	-754
ittle	-755
▁sử	-756
▁little	-757
▁say	-758
ít	-759
▁know	-760
▁af	-761
▁cầu	-762
▁sĩ	-763
▁did	-764
▁thủ	-765
▁hoàn	-766
▁lã	-767
▁thay	-768
▁giúp	-769
ect	-770
▁từng	-771
▁nhỏ	-772
▁hôm	-773
ved	-774
iển	-775
▁mất	-776
▁phòng	-777
▁vật	-778
way	-779
▁giả	-780
▁cố	-781
▁gặp	-782
ought	-783
▁vấn	-784
▁thái	-785
▁mo	-786
▁giữa	-787
▁sản	-788
▁gh	-789
▁like	-790
▁tập	-791
▁other	-792
▁te	-793
ance	-794
ắp	-795
ass	-796
▁us	-797
ite	-798
urn	-799
▁tế	-800
iếu	-801
▁dù	-802
ằm	-803
hing	-804
▁long	-805
other	-806
▁day	-807
▁trời	-808
▁cửa	-809
▁trả	-810
▁má	-811
▁hệ	-812
▁trí	-813
ide	-814
▁chứ	-815
▁sức	-816
▁chiếc	-817
▁ad	-818
▁xe	-819
ink	-820
pt	-821
▁about	-822
▁time	-823
▁how	-824
▁phương	-825
ấm	-826
fore	-827
▁chắc	-828
▁liên	-829
ẩm	-830
ạch	-831
▁po	-832
▁trình	-833
▁see	-834
▁ngồi	-835
ive	-836
▁phía	-837
ak	-838
▁bệnh	-839
▁pháp	-840
▁mad	-841
▁lượng	-842
▁tiêu	-843
ặng	-844
ies	-845
▁đạo	-846
ather	-847
▁mạnh	-848
▁gần	-849
▁chạy	-850
▁đứng	-851
▁càng	-852
▁lợi	-853
▁đấy	-854
▁mang	-855
▁xuất	-856
▁chín	-857
▁thêm	-858
▁khỏi	-859
ag	-860
cc	-861
ach	-862
▁kia	-863
▁đổi	-864
▁sợ	-865
▁đội	-866
▁over	-867
▁lư	-868
▁only	-869
▁lập	-870
▁dis	-871
▁dùng	-872
ạm	-873
▁nguyên	-874
▁per	-875
▁sách	-876
▁tranh	-877
▁rõ	-878
▁đủ	-879
▁minh	-880
▁ri	-881
ked	-882
▁bác	-883
▁has	-884
▁great	-885
▁after	-886
▁should	-887
▁again	-888
▁bán	-889
▁hand	-890
ẹp	-891
▁biệt	-892
▁khách	-893
wn	-894
▁nghìn	-895
ert	-896
▁khu	-897
▁car	-898
ci	-899
▁str	-900
▁well	-901
ear	-902
▁chỗ	-903
▁chịu	-904
▁ty	-905
▁đình	-906
▁đem	-907
▁vụ	-908
▁cảnh	-909
▁xa	-910
ãi	-911
▁bé	-912
▁lắm	-913
iếm	-914
▁tháng	-915
▁upon	-916
▁fo	-917
▁tiến	-918
▁tác	-919
▁good	-920
▁bàn	-921
▁dưới	-922
ered	-923
ally	-924
▁thr	-925
▁đồ	-926
ft	-927
▁sai	-928
▁quyền	-929
▁sang	-930
ệt	-931
▁en	-932
▁nghiệp	-933
▁lẽ	-934
ving	-935
▁off	-936
▁kể	-937
▁cl	-938
▁thằng	-939
ath	-940
▁đông	-941
▁kẻ	-942
▁trẻ	-943
ount	-944
▁cha	-945
▁lâu	-946
▁ít	-947
ud	-948
▁báo	-949
▁á	-950
▁pl	-951
iểm	-952
óa	-953
▁cr	-954
▁pro	-955
▁đức	-956
▁mục	-957
▁mua	-958
▁đáng	-959
▁nhớ	-960
▁cuối	-961
▁cây	-962
▁chất	-963
▁down	-964
ment	-965
ied	-966
ings	-967
▁giữ	-968
▁loại	-969
ick	-970
▁ảnh	-971
▁tương	-972
▁before	-973
▁bài	-974
▁sm	-975
▁app	-976
▁our	-977
▁đàn	-978
▁vua	-979
▁đặt	-980
▁pe	-981
▁bước	-982
▁sáu	-983
▁two	-984
▁tám	-985
ord	-986
▁dẫn	-987
▁ké	-988
▁khiến	-989
pl	-990
êng	-991
▁dài	-992
▁hiệu	-993
▁chơi	-994
▁phụ	-995
▁tây	-996
▁every	-997
▁thống	-998
▁khả	-999
ậm	-1000
▁made	-1001
▁giống	-1002
iềm	-1003
▁duy	-1004
▁old	-1005
ves	-1006
▁mỹ	-1007
▁never	-1008
able	-1009
▁miss	-1010
led	-1011
▁where	-1012
àu	-1013
ress	-1014
▁fir	-1015
▁vài	-1016
▁hoa	-1017
úi	-1018
▁hóa	-1019
▁khổ	-1020
▁đứa	-1021
▁pre	-1022
▁viết	-1023
ựa	-1024
▁xác	-1025
▁tối	-1026
▁must	-1027
ro	-1028
▁thiên	-1029
▁đơn	-1030
▁tục	-1031
▁nằm	-1032
▁mày	-1033
▁nổi	-1034
▁vương	-1035
ated	-1036
oss	-1037
ỉnh	-1038
▁dễ	-1039
▁tăng	-1040
▁cụ	-1041
▁đôi	-1042
▁sc	-1043
▁sở	-1044
ue	-1045
een	-1046
▁cá	-1047
ward	-1048
▁came	-1049
▁vũ	-1050
▁think	-1051
▁tượng	-1052
▁come	-1053
▁kiến	-1054
▁thiết	-1055
▁cười	-1056
ty	-1057
▁rem	-1058
▁nghi	-1059
▁hoàng	-1060
▁bảy	-1061
▁tức	-1062
▁sát	-1063
▁let	-1064
▁its	-1065
orn	-1066
▁đừng	-1067
▁vi	-1068
▁much	-1069
▁vui	-1070
▁chúa	-1071
▁thought	-1072
▁mở	-1073
ness	-1074
▁chứng	-1075
▁suy	-1076
ree	-1077
▁vẻ	-1078
▁bố	-1079
▁tuổi	-1080
ful	-1081
ious	-1082
uyết	-1083
▁biến	-1084
▁such	-1085
▁fl	-1086
▁cứu	-1087
ull	-1088
▁mặc	-1089
▁under	-1090
▁áo	-1091
▁cấp	-1092
▁part	-1093
▁đêm	-1094
ady	-1095
▁ban	-1096
ave	-1097
▁hắn	-1098
▁bóng	-1099
▁ind	-1100
▁kiếm	-1101
ĩnh	-1102
▁nguyễn	-1103
▁chọn	-1104
▁even	-1105
▁phục	-1106
▁ey	-1107
fe	-1108
▁đặc	-1109
▁tinh	-1110
▁quay	-1111
▁mister	-1112
ions	-1113
▁hướng	-1114
▁bet	-1115
▁gái	-1116
▁doanh	-1117
▁these	-1118
▁went	-1119
▁way	-1120
▁đẹp	-1121
▁nữ	-1122
▁vợ	-1123
▁des	-1124
ood	-1125
co	-1126
▁máy	-1127
ab	-1128
ise	-1129
▁here	-1130
▁chuyển	-1131
▁hồi	-1132
▁bec	-1133
▁tướng	-1134
▁thuộc	-1135
▁thư	-1136
▁phẩm	-1137
▁spe	-1138
▁thầy	-1139
▁xã	-1140
▁vọng	-1141
▁đầy	-1142
▁cont	-1143
▁xong	-1144
▁men	-1145
▁mức	-1146
▁thanh	-1147
▁truyền	-1148
▁chức	-1149
▁first	-1150
▁back	-1151
▁giao	-1152
▁just	-1153
▁himself	-1154
▁đá	-1155
▁trái	-1156
▁nghiệm	-1157
▁xảy	-1158
▁phúc	-1159
▁mù	-1160
▁địa	-1161
▁tôn	-1162
óm	-1163
▁cạnh	-1164
ber	-1165
▁lạ	-1166
▁khí	-1167
ans	-1168
▁đọc	-1169
▁linh	-1170
▁đau	-1171
▁liệu	-1172
▁gl	-1173
▁ngu	-1174
▁own	-1175
▁khoảng	-1176
▁yếu	-1177
▁chung	-1178
int	-1179
▁har	-1180
▁hầu	-1181
▁ob	-1182
▁trò	-1183
▁nga	-1184
▁binh	-1185
▁đấu	-1186
èn	-1187
▁don	-1188
▁res	-1189
▁kế	-1190
me	-1191
▁jo	-1192
ary	-1193
▁phân	-1194
▁luận	-1195
▁trận	-1196
oth	-1197
ces	-1198
ip	-1199
man	-1200
▁quanh	-1201
▁phản	-1202
▁might	-1203
▁triển	-1204
lt	-1205
per	-1206
▁đu	-1207
▁pla	-1208
▁diễn	-1209
llow	-1210
▁tích	-1211
▁ru	-1212
▁đạt	-1213
▁chế	-1214
▁tre	-1215
▁bl	-1216
ire	-1217
òa	-1218
age	-1219
▁ngài	-1220
▁ngủ	-1221
▁beg	-1222
king	-1223
▁cực	-1224
▁wat	-1225
ượt	-1226
▁việt	-1227
ouse	-1228
▁away	-1229
▁phủ	-1230
▁get	-1231
▁nhanh	-1232
▁trưởng	-1233
▁trang	-1234
ced	-1235
▁coi	-1236
▁nội	-1237
▁uống	-1238
▁seem	-1239
▁thuyết	-1240
▁through	-1241
▁tội	-1242
▁too	-1243
▁giác	-1244
▁som	-1245
▁phố	-1246
▁sw	-1247
▁châu	-1248
ói	-1249
▁chia	-1250
▁điện	-1251
▁head	-1252
▁phá	-1253
▁hạn	-1254
▁du	-1255
▁chút	-1256
ily	-1257
les	-1258
▁thi	-1259
▁hạ	-1260
ened	-1261
▁nỗi	-1262
▁hưởng	-1263
▁comp	-1264
ẩy	-1265
▁dạ	-1266
▁kéo	-1267
▁à	-1268
▁tham	-1269
▁riêng	-1270
▁triệu	-1271
▁vùng	-1272
▁shall	-1273
igh	-1274
▁quen	-1275
▁somet	-1276
▁liền	-1277
▁turn	-1278
▁pass	-1279
▁lịch	-1280
▁without	-1281
▁sư	-1282
▁ơi	-1283
▁bọn	-1284
▁đoạn	-1285
▁hồ	-1286
▁nothing	-1287
▁dịch	-1288
ew	-1289
▁phong	-1290
▁đoàn	-1291
ried	-1292
▁ánh	-1293
▁nhờ	-1294
▁bay	-1295
▁imp	-1296
▁make	-1297
▁night	-1298
▁tell	-1299
▁hà	-1300
▁bắc	-1301
▁house	-1302
▁danh	-1303
▁huy	-1304
▁hoạt	-1305
▁last	-1306
▁eyes	-1307
▁att	-1308
▁tao	-1309
ữu	-1310
▁inter	-1311
▁op	-1312
▁bel	-1313
ac	-1314
▁đóng	-1315
▁ear	-1316
▁hạnh	-1317
iend	-1318
▁thất	-1319
▁life	-1320
▁ứng	-1321
▁nhu	-1322
▁put	-1323
▁hữu	-1324
▁trông	-1325
▁acc	-1326
ark	-1327
▁hộ	-1328
▁cháu	-1329
ph	-1330
ens	-1331
▁khoa	-1332
▁still	-1333
▁thượng	-1334
ín	-1335
▁wr	-1336
▁most	-1337
▁chồng	-1338
▁quý	-1339
▁gây	-1340
▁friend	-1341
▁hậu	-1342
▁đáp	-1343
▁thiếu	-1344
▁call	-1345
▁kiểm	-1346
▁trai	-1347
are	-1348
red	-1349
▁sâu	-1350
▁take	-1351
ause	-1352
▁love	-1353
▁cons	-1354
▁cung	-1355
▁word	-1356
▁mã	-1357
▁màu	-1358
▁thuật	-1359
iz	-1360
▁phép	-1361
▁buổi	-1362
▁da	-1363
▁kỷ	-1364
▁mong	-1365
▁nha	-1366
▁nat	-1367
▁ser	-1368
▁luật	-1369
▁ca	-1370
▁yên	-1371
▁vốn	-1372
▁thuốc	-1373
▁lão	-1374
▁pres	-1375
▁độc	-1376
▁án	-1377
▁mối	-1378
▁vực	-1379
▁while	-1380
gg	-1381
ếp	-1382
▁thắng	-1383
▁che	-1384
ons	-1385
uyên	-1386
▁wom	-1387
▁suốt	-1388
ảm	-1389
▁those	-1390
▁kỹ	-1391
atter	-1392
▁face	-1393
▁dành	-1394
▁being	-1395
▁dần	-1396
▁sl	-1397
▁young	-1398
ón	-1399
âng	-1400
▁ent	-1401
▁ret	-1402
▁tổng	-1403
ưu	-1404
▁hơi	-1405
▁tấn	-1406
pect	-1407
▁nhiệm	-1408
èo	-1409
▁vệ	-1410
▁gen	-1411
▁lỗi	-1412
ưng	-1413
ever	-1414
▁new	-1415
ase	-1416
▁căn	-1417
▁vàng	-1418
▁sơn	-1419
▁thử	-1420
ince	-1421
▁áp	-1422
▁sông	-1423
▁lệ	-1424
▁once	-1425
▁saw	-1426
▁tra	-1427
▁cánh	-1428
▁room	-1429
▁chấp	-1430
▁giết	-1431
▁chàng	-1432
▁vòng	-1433
▁sir	-1434
▁chắn	-1435
ether	-1436
▁father	-1437
ling	-1438
▁xúc	-1439
▁gra	-1440
ors	-1441
ently	-1442
ian	-1443
▁rộng	-1444
▁rượ	-1445
▁many	-1446
▁khăn	-1447
ory	-1448
▁want	-1449
ell	-1450
▁count	-1451
▁xung	-1452
▁đô	-1453
▁biểu	-1454
▁year	-1455
▁found	-1456
ix	-1457
▁hả	-1458
▁sắp	-1459
▁cour	-1460
▁hy	-1461
▁bre	-1462
▁nhập	-1463
▁rượu	-1464
▁cư	-1465
▁niệm	-1466
▁looked	-1467
▁far	-1468
▁comm	-1469
▁child	-1470
▁võ	-1471
▁dựng	-1472
▁nhật	-1473
▁chương	-1474
ụi	-1475
▁đế	-1476
▁missus	-1477
▁lạc	-1478
▁char	-1479
▁nền	-1480
▁happ	-1481
▁thậm	-1482
▁though	-1483
▁mạng	-1484
▁ơn	-1485
▁trần	-1486
ople	-1487
▁end	-1488
▁tỉnh	-1489
▁right	-1490
▁yet	-1491
thing	-1492
▁king	-1493
▁kiện	-1494
▁xét	-1495
▁same	-1496
▁đám	-1497
ửi	-1498
▁trải	-1499
▁trạng	-1500
▁mind	-1501
▁dương	-1502
▁vo	-1503
▁dậy	-1504
▁nhiêu	-1505
òi	-1506
augh	-1507
▁another	-1508
▁tận	-1509
▁chờ	-1510
▁giản	-1511
▁thúc	-1512
▁nguồn	-1513
▁people	-1514
ose	-1515
▁thú	-1516
▁gu	-1517
▁lộ	-1518
▁place	-1519
te	-1520
▁dám	-1521
▁tiết	-1522
ẫu	-1523
ign	-1524
▁diện	-1525
▁took	-1526
ible	-1527
▁asked	-1528
▁heart	-1529
▁hại	-1530
▁nhóm	-1531
ạp	-1532
▁phạm	-1533
▁left	-1534
land	-1535
▁gắng	-1536
▁inst	-1537
▁ngôi	-1538
ẵn	-1539
ủng	-1540
▁chiều	-1541
▁xưa	-1542
▁cầm	-1543
▁lăm	-1544
▁lính	-1545
▁work	-1546
▁hòa	-1547
▁núi	-1548
▁buồn	-1549
▁lãnh	-1550
▁tàu	-1551
▁thẳng	-1552
▁bạc	-1553
▁stre	-1554
▁ngờ	-1555
▁yes	-1556
▁arm	-1557
▁tuyệt	-1558
▁trách	-1559
▁chuyên	-1560
ứt	-1561
▁vai	-1562
ody	-1563
▁mom	-1564
▁set	-1565
ost	-1566
▁quản	-1567
▁sat	-1568
▁mon	-1569
▁nghệ	-1570
ents	-1571
▁xây	-1572
▁nặng	-1573
▁mãi	-1574
▁cộng	-1575
▁lưu	-1576
▁đợi	-1577
▁đen	-1578
▁ke	-1579
▁light	-1580
ót	-1581
ớm	-1582
▁lan	-1583
▁tồn	-1584
ile	-1585
▁el	-1586
less	-1587
▁hồn	-1588
▁nor	-1589
▁sẵn	-1590
ỡng	-1591
▁khắc	-1592
ict	-1593
▁rep	-1594
ne	-1595
cess	-1596
ower	-1597
▁ple	-1598
ẳn	-1599
ars	-1600
▁find	-1601
▁viện	-1602
ặn	-1603
▁chuẩn	-1604
ịp	-1605
▁bức	-1606
▁chữ	-1607
▁ngoại	-1608
▁give	-1609
▁ac	-1610
▁wa	-1611
▁già	-1612
▁lớp	-1613
▁three	-1614
▁hẳn	-1615
▁lao	-1616
▁sắc	-1617
▁why	-1618
▁ích	-1619
▁dist	-1620
▁wind	-1621
ways	-1622
▁cap	-1623
▁pers	-1624
▁dụ	-1625
▁tù	-1626
▁xử	-1627
ọt	-1628
▁quần	-1629
▁đích	-1630
ertain	-1631
▁pa	-1632
▁ràng	-1633
cl	-1634
▁kiểu	-1635
▁khá	-1636
▁something	-1637
ition	-1638
den	-1639
pped	-1640
ction	-1641
▁cuốn	-1642
sw	-1643
▁lương	-1644
▁got	-1645
iv	-1646
▁đa	-1647
▁cử	-1648
▁mother	-1649
▁supp	-1650
▁tuần	-1651
▁cáo	-1652
▁trợ	-1653
▁home	-1654
ations	-1655
▁đổ	-1656
ject	-1657
▁khai	-1658
▁đỏ	-1659
ished	-1660
▁vận	-1661
▁tố	-1662
▁nắm	-1663
▁going	-1664
▁world	-1665
▁oh	-1666
▁near	-1667
▁trắng	-1668
uyện	-1669
▁lai	-1670
▁biển	-1671
med	-1672
▁always	-1673
▁tỏ	-1674
▁mai	-1675
▁ngàn	-1676
▁niềm	-1677
▁lễ	-1678
▁things	-1679
▁lựa	-1680
▁âu	-1681
▁mời	-1682
▁soon	-1683
▁gir	-1684
▁heard	-1685
▁thuyền	-1686
ồm	-1687
▁giàu	-1688
▁door	-1689
▁war	-1690
ks	-1691
▁god	-1692
▁dòng	-1693
▁chống	-1694
▁ass	-1695
▁vượt	-1696
▁knew	-1697
▁lệnh	-1698
▁hel	-1699
rain	-1700
▁answ	-1701
▁dre	-1702
▁giấy	-1703
▁đoán	-1704
ier	-1705
▁sil	-1706
ner	-1707
▁dạy	-1708
▁thing	-1709
▁thoát	-1710
▁tri	-1711
▁told	-1712
▁phút	-1713
▁giảm	-1714
▁lá	-1715
▁ký	-1716
▁ví	-1717
▁moment	-1718
▁xấu	-1719
sel	-1720
▁seemed	-1721
ting	-1722
▁hiểm	-1723
ning	-1724
▁môn	-1725
▁nghiên	-1726
▁nu	-1727
▁exp	-1728
▁thơ	-1729
▁thưa	-1730
▁tránh	-1731
▁because	-1732
▁lửa	-1733
▁thiện	-1734
▁lắng	-1735
▁ạ	-1736
▁girl	-1737
▁bại	-1738
▁nhắc	-1739
▁trực	-1740
▁phiếu	-1741
▁ly	-1742
▁phi	-1743
▁dr	-1744
▁wo	-1745
▁tiểu	-1746
▁ghi	-1747
▁sur	-1748
▁toán	-1749
▁nửa	-1750
▁ngựa	-1751
ffer	-1752
▁làng	-1753
▁run	-1754
▁eng	-1755
▁ord	-1756
▁hề	-1757
▁sub	-1758
▁âm	-1759
▁mùa	-1760
▁return	-1761
▁cle	-1762
▁thù	-1763
▁quên	-1764
▁ev	-1765
ched	-1766
▁chợ	-1767
▁nã	-1768
▁buộc	-1769
▁rest	-1770
▁lady	-1771
▁hands	-1772
▁dear	-1773
▁dung	-1774
▁high	-1775
▁tấm	-1776
▁ổ	-1777
▁mật	-1778
▁each	-1779
▁ấn	-1780
cy	-1781
▁mi	-1782
▁quite	-1783
row	-1784
▁better	-1785
▁boy	-1786
▁feel	-1787
sh	-1788
▁follow	-1789
▁hard	-1790
▁kind	-1791
ief	-1792
ither	-1793
▁lê	-1794
▁hương	-1795
ash	-1796
▁reg	-1797
▁mê	-1798
▁par	-1799
▁wal	-1800
▁poss	-1801
▁tóc	-1802
▁lặng	-1803
ẹn	-1804
▁mơ	-1805
▁đột	-1806
▁woman	-1807
▁bar	-1808
▁bí	-1809
▁trụ	-1810
▁sớm	-1811
▁conf	-1812
▁nè	-1813
▁mũ	-1814
▁đuổi	-1815
ỗng	-1816
▁cơm	-1817
▁món	-1818
▁tín	-1819
▁tiềm	-1820
▁ste	-1821
▁hải	-1822
▁thuận	-1823
▁dấu	-1824
▁sài	-1825
▁tal	-1826
▁xanh	-1827
iness	-1828
ined	-1829
▁inf	-1830
▁lĩnh	-1831
▁certain	-1832
so	-1833
▁kêu	-1834
▁đảm	-1835
▁half	-1836
▁lầm	-1837
▁side	-1838
▁kiên	-1839
ual	-1840
▁mô	-1841
▁thừa	-1842
▁water	-1843
▁unt	-1844
▁nàng	-1845
▁seen	-1846
▁tường	-1847
ace	-1848
ained	-1849
ủi	-1850
ical	-1851
▁máu	-1852
▁four	-1853
▁id	-1854
iệng	-1855
▁kim	-1856
▁min	-1857
▁tống	-1858
amp	-1859
ange	-1860
▁quán	-1861
▁khỏ	-1862
▁lối	-1863
▁ước	-1864
▁thăm	-1865
air	-1866
▁dra	-1867
▁tộc	-1868
▁mái	-1869
▁sân	-1870
▁done	-1871
iếp	-1872
▁tả	-1873
▁read	-1874
▁rel	-1875
▁morn	-1876
▁thấp	-1877
▁đỡ	-1878
▁few	-1879
▁hor	-1880
▁gener	-1881
▁đương	-1882
▁nghị	-1883
▁rừng	-1884
▁sou	-1885
aster	-1886
▁against	-1887
▁began	-1888
▁appear	-1889
ully	-1890
▁tầm	-1891
▁nghỉ	-1892
áy	-1893
▁khỏe	-1894
aut	-1895
cept	-1896
▁ter	-1897
▁years	-1898
▁does	-1899
ộn	-1900
▁chào	-1901
▁inde	-1902
▁prop	-1903
▁miệng	-1904
oke	-1905
ited	-1906
▁rơi	-1907
ẩu	-1908
oub	-1909
▁đào	-1910
▁rút	-1911
▁hour	-1912
▁kính	-1913
ru	-1914
ised	-1915
▁ref	-1916
▁bánh	-1917
▁uk	-1918
▁del	-1919
▁ins	-1920
▁súng	-1921
og	-1922
most	-1923
▁col	-1924
▁cải	-1925
▁huệ	-1926
▁tai	-1927
▁form	-1928
▁luyện	-1929
ùa	-1930
▁phù	-1931
▁lưng	-1932
▁giọng	-1933
▁course	-1934
ton	-1935
▁giận	-1936
▁keep	-1937
▁ukrain	-1938
orm	-1939
▁add	-1940
▁ngược	-1941
uth	-1942
ted	-1943
▁bữa	-1944
▁hạt	-1945
▁mông	-1946
▁called	-1947
▁morning	-1948
av	-1949
▁herself	-1950
▁tak	-1951
▁khoản	-1952
▁môi	-1953
iss	-1954
▁chăm	-1955
▁enough	-1956
▁exc	-1957
▁also	-1958
▁both	-1959
ớt	-1960
▁sk	-1961
▁khóc	-1962
▁poor	-1963
▁gửi	-1964
▁pur	-1965
▁having	-1966
▁cắt	-1967
▁đảo	-1968
▁song	-1969
ense	-1970
icul	-1971
▁bla	-1972
▁bấy	-1973
▁nhẹ	-1974
▁ngữ	-1975
▁đẩy	-1976
▁betw	-1977
▁felt	-1978
▁gave	-1979
▁triều	-1980
▁beh	-1981
▁care	-1982
▁sure	-1983
▁myself	-1984
ason	-1985
▁xo	-1986
act	-1987
▁giai	-1988
▁clo	-1989
▁cur	-1990
▁kích	-1991
▁whom	-1992
ute	-1993
▁dục	-1994
▁lẫn	-1995
xt	-1996
▁act	-1997
▁however	-1998
õi	-1999
▁dữ	-2000
ired	-2001
▁nạn	-2002
gn	-2003
▁lay	-2004
▁dàng	-2005
ating	-2006
wards	-2007
▁lar	-2008
▁khắp	-2009
▁white	-2010
▁between	-2011
ife	-2012
ild	-2013
▁speak	-2014
▁aff	-2015
▁hoạch	-2016
▁thoại	-2017
▁turned	-2018
ỏng	-2019
▁whole	-2020
tle	-2021
▁beaut	-2022
▁khổng	-2023
aps	-2024
▁belie	-2025
▁matter	-2026
▁adv	-2027
▁occ	-2028
ten	-2029
▁bờ	-2030
▁cre	-2031
▁fam	-2032
▁ngăn	-2033
▁mừng	-2034
▁ngành	-2035
▁round	-2036
▁đòi	-2037
▁địch	-2038
▁ngang	-2039
▁ed	-2040
▁bổ	-2041
osed	-2042
▁pleas	-2043
▁thánh	-2044
▁hát	-2045
▁ti	-2046
▁xuân	-2047
▁cơn	-2048
▁gió	-2049
plied	-2050
▁chừng	-2051
▁thưởng	-2052
▁dị	-2053
ấc	-2054
▁name	-2055
▁ngắn	-2056
▁phận	-2057
end	-2058
▁anything	-2059
éo	-2060
▁dây	-2061
oud	-2062
▁hear	-2063
▁show	-2064
▁hỗ	-2065
▁sud	-2066
ared	-2067
▁rời	-2068
ates	-2069
▁six	-2070
▁lỗ	-2071
oney	-2072
▁khởi	-2073
▁eight	-2074
▁nghiêm	-2075
▁tờ	-2076
▁nuôi	-2077
vers	-2078
▁soát	-2079
▁among	-2080
ple	-2081
▁lạnh	-2082
▁nhạc	-2083
▁trì	-2084
▁nóng	-2085
ack	-2086
▁next	-2087
▁bày	-2088
▁sun	-2089
▁lành	-2090
▁sudden	-2091
iet	-2092
▁open	-2093
▁cried	-2094
▁replied	-2095
én	-2096
ren	-2097
▁tắc	-2098
▁sy	-2099
▁dầu	-2100
ndred	-2101
▁hundred	-2102
ub	-2103
▁looking	-2104
selves	-2105
▁sn	-2106
▁tỷ	-2107
▁tần	-2108
▁help	-2109
ret	-2110
ush	-2111
▁small	-2112
▁voice	-2113
ib	-2114
ins	-2115
▁dựa	-2116
▁stood	-2117
ond	-2118
▁sẻ	-2119
▁xếp	-2120
▁trại	-2121
▁forg	-2122
ters	-2123
▁tha	-2124
▁almost	-2125
ỏa	-2126
▁cân	-2127
ail	-2128
▁lũ	-2129
tain	-2130
▁sim	-2131
▁xuyên	-2132
ank	-2133
▁hôn	-2134
▁tĩnh	-2135
ned	-2136
▁thở	-2137
▁tụi	-2138
▁dark	-2139
▁mean	-2140
▁point	-2141
ùi	-2142
▁son	-2143
▁ngại	-2144
haps	-2145
▁perf	-2146
▁words	-2147
▁perhaps	-2148
▁chặt	-2149
▁trốn	-2150
▁laugh	-2151
▁nhuận	-2152
▁cờ	-2153
▁till	-2154
▁phóng	-2155
enty	-2156
▁bắn	-2157
▁gồm	-2158
▁land	-2159
▁sent	-2160
als	-2161
▁days	-2162
▁giỏi	-2163
▁quảng	-2164
▁ngã	-2165
▁bỗng	-2166
▁liệt	-2167
▁es	-2168
▁sàng	-2169
▁triết	-2170
úa	-2171
▁hồng	-2172
▁play	-2173
▁dĩ	-2174
▁black	-2175
ird	-2176
▁hút	-2177
▁tog	-2178
▁cann	-2179
▁chiếm	-2180
▁underst	-2181
▁mưa	-2182
▁trịnh	-2183
ps	-2184
▁power	-2185
▁law	-2186
▁đốc	-2187
▁stand	-2188
▁together	-2189
▁tàn	-2190
▁rather	-2191
ows	-2192
▁sto	-2193
▁đón	-2194
▁biên	-2195
▁trừ	-2196
▁loài	-2197
▁prin	-2198
▁since	-2199
▁wonder	-2200
ctor	-2201
▁air	-2202
▁thờ	-2203
▁huống	-2204
fully	-2205
ches	-2206
▁sle	-2207
▁full	-2208
▁death	-2209
▁ác	-2210
▁mắc	-2211
▁vội	-2212
▁until	-2213
▁trương	-2214
▁nghề	-2215
▁inc	-2216
▁lục	-2217
▁mor	-2218
▁thịt	-2219
▁indeed	-2220
▁feet	-2221
▁sơ	-2222
▁loạn	-2223
▁gent	-2224
ured	-2225
▁phật	-2226
▁lẻ	-2227
ately	-2228
▁nhảy	-2229
▁tô	-2230
▁tiện	-2231
eth	-2232
▁ang	-2233
▁kép	-2234
▁less	-2235
▁brought	-2236
▁bèn	-2237
▁thou	-2238
▁chóng	-2239
its	-2240
iếng	-2241
▁giường	-2242
▁chăng	-2243
▁ga	-2244
▁giám	-2245
óp	-2246
▁phó	-2247
▁five	-2248
▁niên	-2249
ủy	-2250
▁nông	-2251
▁thảo	-2252
▁taken	-2253
▁mệt	-2254
▁dạng	-2255
eter	-2256
▁cập	-2257
▁vis	-2258
▁bụng	-2259
▁wish	-2260
▁person	-2261
▁best	-2262
▁miền	-2263
▁sho	-2264
▁wife	-2265
bb	-2266
ying	-2267
▁dừng	-2268
▁gone	-2269
▁lang	-2270
▁lord	-2271
▁chiếu	-2272
▁quest	-2273
▁aw	-2274
ậc	-2275
▁blo	-2276
▁tuyên	-2277
▁sổ	-2278
▁eff	-2279
▁ngươi	-2280
▁bậc	-2281
▁sing	-2282
▁chỉnh	-2283
▁ngọn	-2284
▁nhằm	-2285
▁khuy	-2286
cei	-2287
ườn	-2288
▁quyển	-2289
▁mũi	-2290
▁fact	-2291
▁hùng	-2292
▁need	-2293
▁ổn	-2294
▁serv	-2295
▁present	-2296
▁bed	-2297
▁quê	-2298
▁use	-2299
▁red	-2300
▁chữa	-2301
▁cỏ	-2302
▁mil	-2303
▁hung	-2304
▁cannot	-2305
be	-2306
▁gã	-2307
▁contin	-2308
ys	-2309
ỡi	-2310
ial	-2311
▁cau	-2312
▁tan	-2313
▁đèn	-2314
▁nghèo	-2315
▁start	-2316
▁rối	-2317
▁hope	-2318
ures	-2319
▁inv	-2320
▁dường	-2321
èm	-2322
▁ir	-2323
▁remem	-2324
pr	-2325
▁fair	-2326
▁money	-2327
▁tề	-2328
▁cou	-2329
▁cận	-2330
▁vân	-2331
▁book	-2332
ãn	-2333
▁fin	-2334
▁kịp	-2335
▁thủy	-2336
ention	-2337
▁nguyện	-2338
▁nổ	-2339
fort	-2340
▁bầu	-2341
▁mer	-2342
▁interest	-2343
▁hào	-2344
▁kém	-2345
▁fall	-2346
ene	-2347
hn	-2348
▁bes	-2349
▁others	-2350
▁doub	-2351
▁phim	-2352
▁brother	-2353
ầng	-2354
▁bi	-2355
bert	-2356
▁unc	-2357
▁ukraina	-2358
▁pol	-2359
uring	-2360
▁chó	-2361
▁vết	-2362
▁thói	-2363
▁bus	-2364
▁prom	-2365
▁large	-2366
▁ngô	-2367
▁thua	-2368
▁bur	-2369
▁cam	-2370
▁ide	-2371
▁sửa	-2372
▁đạn	-2373
▁ngôn	-2374
▁z	-2375
▁túi	-2376
▁giang	-2377
▁master	-2378
vê	-2379
gar	-2380
▁fire	-2381
▁đằng	-2382
▁ngừng	-2383
▁ngạc	-2384
▁country	-2385
▁tớ	-2386
▁hấp	-2387
▁sch	-2388
▁ô	-2389
▁bra	-2390
▁consid	-2391
cri	-2392
▁ele	-2393
▁hold	-2394
▁gentle	-2395
▁passed	-2396
oc	-2397
ressed	-2398
app	-2399
▁ngân	-2400
ìa	-2401
unt	-2402
▁pap	-2403
▁mệnh	-2404
▁reason	-2405
▁góc	-2406
▁vạn	-2407
▁cond	-2408
▁phán	-2409
ah	-2410
▁thus	-2411
▁true	-2412
▁thiệt	-2413
▁doctor	-2414
▁sứ	-2415
▁thổ	-2416
▁real	-2417
ove	-2418
ants	-2419
▁art	-2420
▁cẩn	-2421
▁mãn	-2422
▁nối	-2423
iting	-2424
ains	-2425
▁hon	-2426
▁thụ	-2427
▁khuyên	-2428
▁strong	-2429
▁đe	-2430
ade	-2431
ựng	-2432
▁fur	-2433
▁băng	-2434
▁khám	-2435
by	-2436
up	-2437
cul	-2438
vered	-2439
▁dire	-2440
▁prince	-2441
ield	-2442
▁adm	-2443
▁bad	-2444
▁along	-2445
▁trống	-2446
▁ground	-2447
ont	-2448
▁john	-2449
▁reach	-2450
ead	-2451
▁close	-2452
▁sound	-2453
▁answered	-2454
body	-2455
▁vâng	-2456
ém	-2457
ũng	-2458
▁nợ	-2459
▁đài	-2460
▁kê	-2461
▁tệ	-2462
▁deep	-2463
iful	-2464
ison	-2465
▁hứa	-2466
▁lâm	-2467
▁chậm	-2468
▁fear	-2469
▁step	-2470
▁alone	-2471
ued	-2472
▁ưu	-2473
▁nhi	-2474
ater	-2475
ided	-2476
▁chảy	-2477
▁nỗ	-2478
▁cor	-2479
▁sign	-2480
▁wood	-2481
▁differ	-2482
▁hổ	-2483
▁dead	-2484
▁điệp	-2485
▁bè	-2486
▁hài	-2487
▁chim	-2488
▁chánh	-2489
▁trao	-2490
▁lược	-2491
▁bật	-2492
▁tạp	-2493
▁fell	-2494
▁đảng	-2495
▁ẩn	-2496
▁ext	-2497
▁sea	-2498
▁sec	-2499
▁gold	-2500
mer	-2501
▁hãi	-2502
▁đồn	-2503
▁wall	-2504
▁short	-2505
▁tí	-2506
▁children	-2507
ngth	-2508
▁gốc	-2509
▁list	-2510
ousand	-2511
▁tuyển	-2512
▁whose	-2513
▁cal	-2514
▁dep	-2515
▁gương	-2516
▁leave	-2517
▁thousand	-2518
▁hầm	-2519
▁tạm	-2520
▁tầng	-2521
▁therefore	-2522
▁lad	-2523
▁lạp	-2524
▁mus	-2525
▁rec	-2526
▁giặc	-2527
ets	-2528
ides	-2529
cious	-2530
▁ngon	-2531
▁thận	-2532
▁thang	-2533
cond	-2534
▁believe	-2535
jo	-2536
▁vỡ	-2537
▁mắn	-2538
▁khủng	-2539
▁met	-2540
▁twenty	-2541
▁hur	-2542
▁doubt	-2543
▁đà	-2544
▁dec	-2545
▁ngọc	-2546
▁given	-2547
▁khẩu	-2548
ụp	-2549
▁tem	-2550
▁thy	-2551
ances	-2552
▁suddenly	-2553
▁tom	-2554
▁themselves	-2555
ẫm	-2556
ake	-2557
▁fif	-2558
▁nầy	-2559
▁thỏa	-2560
▁đựng	-2561
▁second	-2562
ged	-2563
▁chr	-2564
▁siêu	-2565
gs	-2566
uck	-2567
laim	-2568
▁khuôn	-2569
ably	-2570
▁pal	-2571
▁ran	-2572
▁mùi	-2573
▁hiền	-2574
ement	-2575
▁tông	-2576
▁order	-2577
▁ám	-2578
▁phu	-2579
▁ten	-2580
▁ye	-2581
▁sóng	-2582
▁sever	-2583
▁compan	-2584
son	-2585
▁phổ	-2586
▁else	-2587
▁nature	-2588
li	-2589
ov	-2590
ept	-2591
▁tá	-2592
▁tốc	-2593
▁ngũ	-2594
▁chuyến	-2595
▁cát	-2596
▁giấc	-2597
▁really	-2598
▁friends	-2599
▁mẫu	-2600
▁biện	-2601
▁live	-2602
▁ask	-2603
▁não	-2604
▁thí	-2605
▁used	-2606
▁eas	-2607
▁ill	-2608
▁phú	-2609
▁vời	-2610
illed	-2611
ister	-2612
ready	-2613
▁sung	-2614
▁question	-2615
▁abs	-2616
▁opp	-2617
▁already	-2618
▁captain	-2619
ude	-2620
▁ann	-2621
▁cir	-2622
▁pha	-2623
▁phạt	-2624
▁tháp	-2625
▁cất	-2626
▁mid	-2627
▁phê	-2628
▁soul	-2629
▁mount	-2630
ướp	-2631
▁understand	-2632
▁thả	-2633
▁horse	-2634
▁ah	-2635
▁mưu	-2636
▁mảnh	-2637
imes	-2638
▁obs	-2639
ually	-2640
▁says	-2641
▁necess	-2642
▁behind	-2643
▁evening	-2644
▁cast	-2645
▁vững	-2646
▁ghế	-2647
▁gấp	-2648
▁thầm	-2649
▁ve	-2650
aint	-2651
▁fre	-2652
▁body	-2653
▁ruột	-2654
▁around	-2655
ane	-2656
▁big	-2657
▁flo	-2658
▁tân	-2659
▁vườn	-2660
▁hoang	-2661
▁cat	-2662
▁hoá	-2663
▁reco	-2664
▁ừ	-2665
▁dứt	-2666
▁mur	-2667
ments	-2668
▁clear	-2669
▁coming	-2670
▁ngụ	-2671
▁sum	-2672
▁pret	-2673
▁mẽ	-2674
▁tú	-2675
▁hoài	-2676
▁hứng	-2677
▁often	-2678
owed	-2679
ught	-2680
▁chối	-2681
▁general	-2682
ằn	-2683
ern	-2684
res	-2685
rew	-2686
▁hẹn	-2687
▁lea	-2688
▁pat	-2689
▁bear	-2690
▁hạng	-2691
▁meet	-2692
▁tiếc	-2693
▁expect	-2694
▁returned	-2695
▁đói	-2696
▁sort	-2697
ony	-2698
▁hoảng	-2699
▁fellow	-2700
▁beautiful	-2701
▁everything	-2702
▁vĩ	-2703
▁cặp	-2704
▁nấu	-2705
▁chúc	-2706
▁thách	-2707
▁sóc	-2708
ching	-2709
▁spir	-2710
ặm	-2711
▁cãi	-2712
▁chứa	-2713
▁tảng	-2714
▁bring	-2715
ẫy	-2716
▁gắn	-2717
▁nhé	-2718
▁foot	-2719
▁thao	-2720
▁ờ	-2721
ria	-2722
cted	-2723
▁above	-2724
▁quick	-2725
osition	-2726
odu	-2727
▁ham	-2728
▁tái	-2729
▁khái	-2730
▁const	-2731
▁table	-2732
▁vẽ	-2733
▁ấm	-2734
ceed	-2735
ific	-2736
▁chớ	-2737
ities	-2738
▁canh	-2739
▁hang	-2740
▁nice	-2741
▁gà	-2742
▁dev	-2743
▁chục	-2744
▁căng	-2745
ceived	-2746
▁earth	-2747
▁nhiệt	-2748
▁object	-2749
▁perfect	-2750
▁least	-2751
▁itself	-2752
ek	-2753
anc	-2754
▁spr	-2755
▁trấn	-2756
▁sight	-2757
br	-2758
ines	-2759
▁dưỡng	-2760
lic	-2761
▁swe	-2762
▁quang	-2763
▁whether	-2764
ized	-2765
▁bận	-2766
▁won	-2767
▁dang	-2768
▁during	-2769
▁manner	-2770
▁bạo	-2771
▁đập	-2772
▁either	-2773
ett	-2774
▁cà	-2775
▁kín	-2776
▁low	-2777
▁daugh	-2778
▁ap	-2779
▁mờ	-2780
▁pen	-2781
▁lear	-2782
▁rose	-2783
▁times	-2784
▁cut	-2785
▁def	-2786
▁khối	-2787
▁within	-2788
▁towards	-2789
itch	-2790
▁góp	-2791
▁case	-2792
▁window	-2793
▁sometimes	-2794
▁hán	-2795
ering	-2796
▁cướp	-2797
▁past	-2798
▁tuyết	-2799
vel	-2800
▁bò	-2801
▁khôn	-2802
▁thee	-2803
▁đỉnh	-2804
▁known	-2805
▁ôm	-2806
▁bit	-2807
▁dem	-2808
▁pie	-2809
▁val	-2810
▁expl	-2811
▁ready	-2812
▁women	-2813
▁mak	-2814
ution	-2815
▁fort	-2816
▁khóa	-2817
▁gòn	-2818
▁lát	-2819
▁đốt	-2820
▁diệt	-2821
▁free	-2822
▁lượt	-2823
▁gỗ	-2824
ient	-2825
▁lái	-2826
utter	-2827
▁kept	-2828
▁miếng	-2829
oon	-2830
val	-2831
ượn	-2832
▁mốt	-2833
▁thợ	-2834
▁circ	-2835
men	-2836
▁óc	-2837
here	-2838
▁strange	-2839
ote	-2840
▁vả	-2841
▁cường	-2842
▁tán	-2843
▁ủng	-2844
▁ngoan	-2845
▁letter	-2846
▁cai	-2847
▁num	-2848
▁tặng	-2849
▁sleep	-2850
▁xô	-2851
▁road	-2852
▁thuê	-2853
▁tròn	-2854
▁khích	-2855
▁obser	-2856
▁chạm	-2857
▁glad	-2858
▁phil	-2859
▁pháo	-2860
▁mary	-2861
ny	-2862
ướt	-2863
▁mộ	-2864
▁dõi	-2865
▁didn	-2866
▁making	-2867
ety	-2868
ump	-2869
▁lost	-2870
cks	-2871
▁rủi	-2872
▁held	-2873
▁hiệp	-2874
▁giành	-2875
▁cold	-2876
▁nhẫn	-2877
▁tung	-2878
▁ái	-2879
oken	-2880
▁bào	-2881
▁mem	-2882
▁dream	-2883
vern	-2884
▁dũng	-2885
▁khánh	-2886
▁remember	-2887
▁dri	-2888
▁tùy	-2889
▁chán	-2890
▁sus	-2891
▁mist	-2892
▁sướng	-2893
▁xương	-2894
▁family	-2895
cked	-2896
▁tòa	-2897
▁rich	-2898
▁express	-2899
par	-2900
▁dọn	-2901
▁disc	-2902
ms	-2903
▁mau	-2904
▁tam	-2905
▁mill	-2906
▁trùng	-2907
▁answer	-2908
▁became	-2909
▁possible	-2910
iew	-2911
airs	-2912
▁arri	-2913
▁hast	-2914
▁star	-2915
▁sạch	-2916
ớn	-2917
ler	-2918
ley	-2919
▁chở	-2920
▁lôi	-2921
ience	-2922
▁truth	-2923
▁opened	-2924
ult	-2925
▁lí	-2926
▁cra	-2927
▁eye	-2928
▁pau	-2929
▁cháy	-2930
▁ghét	-2931
▁prof	-2932
▁trôi	-2933
▁gạo	-2934
▁lam	-2935
▁hair	-2936
▁talk	-2937
▁thoải	-2938
▁nọ	-2939
iled	-2940
lish	-2941
▁cấm	-2942
▁est	-2943
▁squ	-2944
▁tươi	-2945
iously	-2946
▁thiền	-2947
ọa	-2948
sed	-2949
ãng	-2950
▁bá	-2951
▁hàm	-2952
▁sit	-2953
▁buôn	-2954
▁chur	-2955
▁nắng	-2956
▁phức	-2957
▁stay	-2958
▁suff	-2959
▁thập	-2960
ùm	-2961
ale	-2962
ster	-2963
▁họp	-2964
▁diff	-2965
▁draw	-2966
▁begin	-2967
▁means	-2968
▁daughter	-2969
▁din	-2970
▁hộp	-2971
▁sor	-2972
ident	-2973
▁cứng	-2974
▁điền	-2975
ộm	-2976
ool	-2977
▁ce	-2978
▁dã	-2979
▁uy	-2980
▁đệ	-2981
▁nâng	-2982
▁state	-2983
▁business	-2984
ễu	-2985
ham	-2986
ott	-2987
ased	-2988
▁bụi	-2989
▁họa	-2990
▁đền	-2991
▁pain	-2992
▁suất	-2993
▁thir	-2994
▁xứng	-2995
▁điên	-2996
▁christ	-2997
▁mạc	-2998
▁pretty	-2999
▁cốt	-3000
▁lui	-3001
▁non	-3002
▁dáng	-3003
▁town	-3004
▁story	-3005
▁taking	-3006
▁ép	-3007
▁nho	-3008
▁nhị	-3009
▁tổn	-3010
ility	-3011
▁cưới	-3012
▁hiến	-3013
▁tách	-3014
▁hàn	-3015
▁khô	-3016
▁giây	-3017
▁giấu	-3018
▁giật	-3019
▁khát	-3020
▁ship	-3021
▁spoke	-3022
▁surpr	-3023
esh	-3024
▁xứ	-3025
▁bãi	-3026
▁lừa	-3027
ouble	-3028
▁lead	-3029
▁ninh	-3030
▁dọc	-3031
▁leo	-3032
owers	-3033
▁arms	-3034
▁month	-3035
of	-3036
dle	-3037
▁đỗ	-3038
ross	-3039
▁trà	-3040
▁ống	-3041
ger	-3042
empt	-3043
ones	-3044
▁bếp	-3045
▁sad	-3046
▁corn	-3047
▁natur	-3048
▁bề	-3049
▁cry	-3050
▁tou	-3051
▁idea	-3052
▁thuế	-3053
isf	-3054
▁cục	-3055
▁hus	-3056
antly	-3057
▁soft	-3058
ey	-3059
old	-3060
▁je	-3061
▁mod	-3062
▁tốn	-3063
▁ung	-3064
owing	-3065
▁break	-3066
▁except	-3067
▁consider	-3068
▁hum	-3069
▁sắt	-3070
▁quiet	-3071
▁suppose	-3072
▁nô	-3073
▁hằng	-3074
▁nhắm	-3075
▁khẳng	-3076
▁several	-3077
▁mát	-3078
▁huyền	-3079
▁dro	-3080
▁hảo	-3081
▁fine	-3082
▁vang	-3083
itting	-3084
▁lúa	-3085
▁nét	-3086
▁van	-3087
▁stud	-3088
▁saying	-3089
▁account	-3090
▁ân	-3091
▁bát	-3092
▁cản	-3093
▁added	-3094
▁longer	-3095
▁able	-3096
▁bill	-3097
▁tòng	-3098
▁disco	-3099
▁human	-3100
▁khứ	-3101
▁nãy	-3102
▁cent	-3103
▁sold	-3104
ốm	-3105
bor	-3106
▁ge	-3107
▁dao	-3108
▁jud	-3109
▁mat	-3110
▁win	-3111
▁imag	-3112
▁dặm	-3113
itted	-3114
▁gard	-3115
▁đăng	-3116
▁huyện	-3117
▁subject	-3118
bed	-3119
▁bù	-3120
alth	-3121
ndon	-3122
▁bang	-3123
▁mere	-3124
▁miễn	-3125
▁thiệu	-3126
ug	-3127
▁hư	-3128
▁xóm	-3129
▁city	-3130
▁kịch	-3131
▁huynh	-3132
▁charac	-3133
▁mỉ	-3134
▁dối	-3135
▁trăng	-3136
▁common	-3137
ợt	-3138
▁lữ	-3139
▁quà	-3140
▁bird	-3141
▁slow	-3142
▁thảm	-3143
▁wild	-3144
▁thuần	-3145
ney	-3146
▁cấu	-3147
▁túc	-3148
ards	-3149
vent	-3150
▁mỏi	-3151
▁đồi	-3152
▁conc	-3153
▁tràn	-3154
laimed	-3155
▁trồng	-3156
▁satisf	-3157
▁different	-3158
òm	-3159
▁tụ	-3160
medi	-3161
▁cán	-3162
▁diệu	-3163
▁ngực	-3164
▁cross	-3165
▁giảng	-3166
▁grand	-3167
▁sense	-3168
▁ảo	-3169
▁fan	-3170
▁màn	-3171
▁thoảng	-3172
▁church	-3173
▁respect	-3174
lly	-3175
band	-3176
▁esc	-3177
▁lộn	-3178
▁scar	-3179
▁thỉnh	-3180
▁across	-3181
▁equ	-3182
▁street	-3183
▁followed	-3184
oun	-3185
ury	-3186
▁lồ	-3187
teen	-3188
▁cổng	-3189
▁particul	-3190
ats	-3191
ize	-3192
▁kì	-3193
ices	-3194
▁vay	-3195
▁bảng	-3196
▁chép	-3197
▁khốn	-3198
▁loạt	-3199
▁tịch	-3200
▁happy	-3201
▁margar	-3202
outh	-3203
▁bom	-3204
▁acqu	-3205
▁phối	-3206
▁self	-3207
▁trans	-3208
▁margaret	-3209
der	-3210
ative	-3211
▁appro	-3212
▁blood	-3213
▁court	-3214
▁queen	-3215
▁school	-3216
▁husband	-3217
▁difficul	-3218
▁sàn	-3219
riage	-3220
▁chợt	-3221
▁trưa	-3222
▁green	-3223
▁ruộng	-3224
▁continued	-3225
bs	-3226
use	-3227
aven	-3228
▁khảo	-3229
▁đống	-3230
▁contr	-3231
▁govern	-3232
▁immedi	-3233
bo	-3234
íu	-3235
ềm	-3236
ime	-3237
▁arr	-3238
▁bat	-3239
▁phái	-3240
▁sánh	-3241
ection	-3242
▁glass	-3243
ature	-3244
ingly	-3245
▁hưng	-3246
▁tree	-3247
▁tuyến	-3248
pend	-3249
▁fav	-3250
▁san	-3251
▁chặn	-3252
▁further	-3253
▁appeared	-3254
ẹt	-3255
ages	-3256
▁dày	-3257
▁gói	-3258
otion	-3259
▁hiếu	-3260
▁thâm	-3261
▁trầm	-3262
▁phiền	-3263
▁become	-3264
▁hè	-3265
ench	-3266
▁hủy	-3267
▁chấm	-3268
▁desp	-3269
▁gánh	-3270
▁ngón	-3271
▁răng	-3272
▁điển	-3273
▁occas	-3274
▁smile	-3275
▁princess	-3276
▁hot	-3277
▁tắt	-3278
▁quái	-3279
▁stri	-3280
▁worth	-3281
▁effect	-3282
ular	-3283
utes	-3284
▁tru	-3285
ising	-3286
▁sweet	-3287
▁yourself	-3288
ee	-3289
▁pub	-3290
▁rom	-3291
▁giày	-3292
▁mine	-3293
▁chief	-3294
▁chiêu	-3295
▁disapp	-3296
▁delight	-3297
▁hối	-3298
▁thor	-3299
▁trộm	-3300
▁carried	-3301
▁huấn	-3302
▁vinh	-3303
▁doing	-3304
▁river	-3305
▁trưng	-3306
▁comple	-3307
▁wanted	-3308
▁feeling	-3309
▁happened	-3310
ots	-3311
essed	-3312
▁coll	-3313
▁mark	-3314
▁soci	-3315
▁seven	-3316
▁thăng	-3317
ina	-3318
▁ghê	-3319
▁vây	-3320
▁xâm	-3321
▁khán	-3322
▁terri	-3323
▁trave	-3324
els	-3325
▁cự	-3326
eric	-3327
▁dar	-3328
▁front	-3329
▁eighteen	-3330
une	-3331
ians	-3332
▁chả	-3333
▁eat	-3334
ledge	-3335
▁deal	-3336
▁purp	-3337
▁comfort	-3338
▁bro	-3339
▁bớt	-3340
▁sợi	-3341
▁tuệ	-3342
iling	-3343
▁giáp	-3344
▁line	-3345
▁lived	-3346
▁ought	-3347
▁chén	-3348
▁khen	-3349
▁khúc	-3350
▁thác	-3351
▁trees	-3352
▁heaven	-3353
▁regard	-3354
▁particular	-3355
wh	-3356
lled	-3357
▁bám	-3358
▁chan	-3359
▁disp	-3360
▁prot	-3361
▁cause	-3362
▁offic	-3363
▁thạch	-3364
▁accord	-3365
▁bright	-3366
ợn	-3367
▁bẩm	-3368
▁bối	-3369
▁move	-3370
▁pray	-3371
idence	-3372
▁secret	-3373
▁walked	-3374
▁certainly	-3375
ape	-3376
ask	-3377
▁gác	-3378
▁top	-3379
anged	-3380
ening	-3381
▁heav	-3382
▁jack	-3383
▁phấn	-3384
▁shar	-3385
▁lề	-3386
▁ngư	-3387
▁hill	-3388
▁inqu	-3389
▁lông	-3390
▁vĩnh	-3391
▁character	-3392
▁	-3393
n	-3394
h	-3395
t	-3396
i	-3397
c	-3398
a	-3399
e	-3400
g	-3401
o	-3402
r	-3403
s	-3404
m	-3405
u	-3406
l	-3407
d	-3408
đ	-3409
y	-3410
à	-3411
v	-3412
b	-3413
p	-3414
ư	-3415
k	-3416
á	-3417
ô	-3418
w	-3419
f	-3420
ó	-3421
ế	-3422
ạ	-3423
ộ	-3424
ờ	-3425
ì	-3426
ả	-3427
ấ	-3428
ê	-3429
ớ	-3430
ố	-3431
â	-3432
ệ	-3433
ề	-3434
ủ	-3435
q	-3436
ể	-3437
ậ	-3438
ơ	-3439
ợ	-3440
x	-3441
ữ	-3442
ầ	-3443
ú	-3444
ọ	-3445
ự	-3446
í	-3447
ứ	-3448
ị	-3449
ã	-3450
ở	-3451
ă	-3452
ắ	-3453
ồ	-3454
ò	-3455
ừ	-3456
ụ	-3457
ặ	-3458
ũ	-3459
ổ	-3460
ù	-3461
ằ	-3462
ỏ	-3463
ẽ	-3464
ỉ	-3465
'	-3466
ử	-3467
ĩ	-3468
ý	-3469
é	-3470
ỗ	-3471
ẫ	-3472
j	-3473
ẻ	-3474
ẹ	-3475
ễ	-3476
ẩ	-3477
ẳ	-3478
è	-3479
õ	-3480
z	-3481
ỡ	-3482
ỳ	-3483
ỹ	-3484
ỷ	-3485
ẵ	-3486
ỵ	-3487
0	-3488
2	-3489
1	-3490
3	-3491
7	-3492
6	-3493
4	-3494
8	-3495
