<unk>	0
<s>	0
</s>	0
<|vi|>	0
<|en|>	0
<0x00>	0
<0x01>	0
<0x02>	0
<0x03>	0
<0x04>	0
<0x05>	0
<0x06>	0
<0x07>	0
<0x08>	0
<0x09>	0
<0x0A>	0
<0x0B>	0
<0x0C>	0
<0x0D>	0
<0x0E>	0
<0x0F>	0
<0x10>	0
<0x11>	0
<0x12>	0
<0x13>	0
<0x14>	0
<0x15>	0
<0x16>	0
<0x17>	0
<0x18>	0
<0x19>	0
<0x1A>	0
<0x1B>	0
<0x1C>	0
<0x1D>	0
<0x1E>	0
<0x1F>	0
<0x20>	0
<0x21>	0
<0x22>	0
<0x23>	0
<0x24>	0
<0x25>	0
<0x26>	0
<0x27>	0
<0x28>	0
<0x29>	0
<0x2A>	0
<0x2B>	0
<0x2C>	0
<0x2D>	0
<0x2E>	0
<0x2F>	0
<0x30>	0
<0x31>	0
<0x32>	0
<0x33>	0
<0x34>	0
<0x35>	0
<0x36>	0
<0x37>	0
<0x38>	0
<0x39>	0
<0x3A>	0
<0x3B>	0
<0x3C>	0
<0x3D>	0
<0x3E>	0
<0x3F>	0
<0x40>	0
<0x41>	0
<0x42>	0
<0x43>	0
<0x44>	0
<0x45>	0
<0x46>	0
<0x47>	0
<0x48>	0
<0x49>	0
<0x4A>	0
<0x4B>	0
<0x4C>	0
<0x4D>	0
<0x4E>	0
<0x4F>	0
<0x50>	0
<0x51>	0
<0x52>	0
<0x53>	0
<0x54>	0
<0x55>	0
<0x56>	0
<0x57>	0
<0x58>	0
<0x59>	0
<0x5A>	0
<0x5B>	0
<0x5C>	0
<0x5D>	0
<0x5E>	0
<0x5F>	0
<0x60>	0
<0x61>	0
<0x62>	0
<0x63>	0
<0x64>	0
<0x65>	0
<0x66>	0
<0x67>	0
<0x68>	0
<0x69>	0
<0x6A>	0
<0x6B>	0
<0x6C>	0
<0x6D>	0
<0x6E>	0
<0x6F>	0
<0x70>	0
<0x71>	0
<0x72>	0
<0x73>	0
<0x74>	0
<0x75>	0
<0x76>	0
<0x77>	0
<0x78>	0
<0x79>	0
<0x7A>	0
<0x7B>	0
<0x7C>	0
<0x7D>	0
<0x7E>	0
<0x7F>	0
<0x80>	0
<0x81>	0
<0x82>	0
<0x83>	0
<0x84>	0
<0x85>	0
<0x86>	0
<0x87>	0
<0x88>	0
<0x89>	0
<0x8A>	0
<0x8B>	0
<0x8C>	0
<0x8D>	0
<0x8E>	0
<0x8F>	0
<0x90>	0
<0x91>	0
<0x92>	0
<0x93>	0
<0x94>	0
<0x95>	0
<0x96>	0
<0x97>	0
<0x98>	0
<0x99>	0
<0x9A>	0
<0x9B>	0
<0x9C>	0
<0x9D>	0
<0x9E>	0
<0x9F>	0
<0xA0>	0
<0xA1>	0
<0xA2>	0
<0xA3>	0
<0xA4>	0
<0xA5>	0
<0xA6>	0
<0xA7>	0
<0xA8>	0
<0xA9>	0
<0xAA>	0
<0xAB>	0
<0xAC>	0
<0xAD>	0
<0xAE>	0
<0xAF>	0
<0xB0>	0
<0xB1>	0
<0xB2>	0
<0xB3>	0
<0xB4>	0
<0xB5>	0
<0xB6>	0
<0xB7>	0
<0xB8>	0
<0xB9>	0
<0xBA>	0
<0xBB>	0
<0xBC>	0
<0xBD>	0
<0xBE>	0
<0xBF>	0
<0xC0>	0
<0xC1>	0
<0xC2>	0
<0xC3>	0
<0xC4>	0
<0xC5>	0
<0xC6>	0
<0xC7>	0
<0xC8>	0
<0xC9>	0
<0xCA>	0
<0xCB>	0
<0xCC>	0
<0xCD>	0
<0xCE>	0
<0xCF>	0
<0xD0>	0
<0xD1>	0
<0xD2>	0
<0xD3>	0
<0xD4>	0
<0xD5>	0
<0xD6>	0
<0xD7>	0
<0xD8>	0
<0xD9>	0
<0xDA>	0
<0xDB>	0
<0xDC>	0
<0xDD>	0
<0xDE>	0
<0xDF>	0
<0xE0>	0
<0xE1>	0
<0xE2>	0
<0xE3>	0
<0xE4>	0
<0xE5>	0
<0xE6>	0
<0xE7>	0
<0xE8>	0
<0xE9>	0
<0xEA>	0
<0xEB>	0
<0xEC>	0
<0xED>	0
<0xEE>	0
<0xEF>	0
<0xF0>	0
<0xF1>	0
<0xF2>	0
<0xF3>	0
<0xF4>	0
<0xF5>	0
<0xF6>	0
<0xF7>	0
<0xF8>	0
<0xF9>	0
<0xFA>	0
<0xFB>	0
<0xFC>	0
<0xFD>	0
<0xFE>	0
<0xFF>	0
▁t	-0
ng	-1
▁c	-2
▁th	-3
▁đ	-4
▁n	-5
▁h	-6
▁m	-7
▁l	-8
▁b	-9
▁s	-10
▁v	-11
▁a	-12
▁ch	-13
▁k	-14
nh	-15
▁nh	-16
▁g	-17
▁tr	-18
▁the	-19
▁ng	-20
▁kh	-21
▁d	-22
▁p	-23
▁w	-24
er	-25
▁r	-26
▁i	-27
▁o	-28
ông	-29
nd	-30
▁là	-31
▁ph	-32
ed	-33
▁gi	-34
▁và	-35
ou	-36
ời	-37
on	-38
en	-39
ên	-40
qu	-41
▁f	-42
▁qu	-43
ột	-44
at	-45
ác	-46
an	-47
▁một	-48
▁to	-49
▁có	-50
▁ha	-51
es	-52
▁and	-53
or	-54
ôi	-55
iế	-56
▁không	-57
ủa	-58
▁của	-59
▁of	-60
is	-61
iệ	-62
ing	-63
▁x	-64
ười	-65
ới	-66
ar	-67
in	-68
ượ	-69
ll	-70
ong	-71
▁người	-72
ất	-73
ại	-74
▁tôi	-75
it	-76
▁e	-77
ay	-78
ch	-79
▁như	-80
▁in	-81
as	-82
ình	-83
ững	-84
▁sa	-85
▁những	-86
uy	-87
re	-88
ược	-89
iề	-90
▁y	-91
▁nà	-92
ấy	-93
▁nó	-94
▁được	-95
ân	-96
▁các	-97
▁cho	-98
▁ta	-99
▁wh	-100
▁he	-101
▁trong	-102
▁ngh	-103
om	-104
ái	-105
▁mà	-106
▁be	-107
ải	-108
▁đã	-109
▁con	-110
ần	-111
le	-112
ươ	-113
▁ra	-114
ướ	-115
▁đó	-116
▁với	-117
ot	-118
ạn	-119
ow	-120
ut	-121
▁chú	-122
▁đi	-123
iều	-124
▁it	-125
▁sh	-126
▁anh	-127
im	-128
ld	-129
▁họ	-130
▁để	-131
▁lại	-132
▁that	-133
ly	-134
▁cả	-135
ây	-136
▁u	-137
▁thì	-138
id	-139
ce	-140
ến	-141
ống	-142
gh	-143
▁was	-144
ve	-145
iên	-146
se	-147
▁thể	-148
ước	-149
▁cũ	-150
▁khi	-151
▁này	-152
▁làm	-153
▁you	-154
▁on	-155
et	-156
ent	-157
ết	-158
ang	-159
ằng	-160
▁mình	-161
ầu	-162
▁cũng	-163
▁ho	-164
ành	-165
ồi	-166
inh	-167
▁đến	-168
▁phải	-169
▁ở	-170
ăm	-171
▁cái	-172
ườ	-173
ương	-174
iết	-175
▁về	-176
st	-177
ường	-178
âu	-179
ức	-180
▁bạn	-181
ận	-182
ith	-183
▁nói	-184
▁ông	-185
▁for	-186
▁as	-187
▁sẽ	-188
am	-189
▁chúng	-190
▁ba	-191
ài	-192
àn	-193
ối	-194
▁sự	-195
▁his	-196
▁mu	-197
▁vào	-198
ir	-199
àng	-200
ật	-201
ơn	-202
▁st	-203
▁từ	-204
▁việ	-205
ion	-206
▁with	-207
ur	-208
ực	-209
▁nhưng	-210
▁her	-211
ính	-212
▁do	-213
al	-214
▁thế	-215
ốn	-216
▁an	-217
em	-218
ver	-219
ter	-220
▁gì	-221
▁hai	-222
▁em	-223
ad	-224
▁lo	-225
▁độ	-226
òn	-227
▁chỉ	-228
▁công	-229
ản	-230
ght	-231
iến	-232
ăn	-233
▁cu	-234
ùng	-235
anh	-236
▁việc	-237
▁rồi	-238
iể	-239
▁nhà	-240
▁is	-241
▁not	-242
ic	-243
▁đầu	-244
▁had	-245
▁nào	-246
▁thấy	-247
iện	-248
au	-249
▁so	-250
▁còn	-251
▁su	-252
úc	-253
▁re	-254
ưa	-255
ánh	-256
▁biết	-257
át	-258
ậy	-259
▁at	-260
ộc	-261
her	-262
▁but	-263
▁khác	-264
ung	-265
ữa	-266
ould	-267
ắt	-268
▁thành	-269
▁nhiều	-270
ess	-271
ôn	-272
▁she	-273
ăng	-274
ct	-275
▁fr	-276
êu	-277
▁se	-278
▁thu	-279
▁vì	-280
áo	-281
▁trên	-282
án	-283
▁him	-284
ill	-285
ẫn	-286
áng	-287
ain	-288
▁rằng	-289
▁hơn	-290
ếu	-291
ơi	-292
ày	-293
▁nghĩ	-294
▁we	-295
▁pr	-296
▁bị	-297
ai	-298
ặt	-299
ắc	-300
▁vậy	-301
ục	-302
▁năm	-303
▁chuy	-304
▁tiế	-305
▁lên	-306
▁me	-307
▁tư	-308
▁sau	-309
▁đề	-310
ổi	-311
òng	-312
ọi	-313
▁điều	-314
▁lu	-315
▁li	-316
ập	-317
od	-318
ao	-319
ồng	-320
ỏi	-321
▁cách	-322
▁giờ	-323
▁quan	-324
▁đây	-325
âm	-326
iền	-327
▁đị	-328
ốc	-329
ere	-330
▁rất	-331
ích	-332
▁chính	-333
▁nên	-334
ke	-335
▁ấy	-336
ội	-337
▁whi	-338
▁đang	-339
▁cô	-340
▁my	-341
▁hay	-342
ốt	-343
▁ngày	-344
▁nếu	-345
ện	-346
ight	-347
▁trước	-348
ìn	-349
est	-350
▁xu	-351
all	-352
ặc	-353
▁nhất	-354
▁theo	-355
ởng	-356
▁học	-357
▁de	-358
▁all	-359
▁sao	-360
▁they	-361
▁mới	-362
▁tự	-363
▁quy	-364
▁ne	-365
▁nước	-366
▁j	-367
ạo	-368
ck	-369
▁have	-370
iểu	-371
pp	-372
il	-373
ứng	-374
ươi	-375
▁by	-376
ome	-377
ore	-378
▁this	-379
▁muốn	-380
▁said	-381
ấn	-382
ền	-383
ám	-384
▁thời	-385
▁cuộc	-386
▁go	-387
ie	-388
▁chị	-389
▁which	-390
ia	-391
▁nhân	-392
▁sống	-393
ảo	-394
▁up	-395
ỗi	-396
▁quân	-397
ượng	-398
▁động	-399
th	-400
▁lý	-401
ạnh	-402
▁bà	-403
ắn	-404
▁qua	-405
▁nữa	-406
▁or	-407
▁cùng	-408
▁ý	-409
▁nhận	-410
▁bu	-411
ọng	-412
ok	-413
▁định	-414
▁from	-415
ant	-416
áp	-417
êm	-418
▁thực	-419
iệu	-420
▁mươi	-421
▁no	-422
▁cảm	-423
▁kho	-424
▁hàng	-425
▁tại	-426
▁lúc	-427
▁tới	-428
▁số	-429
▁vẫn	-430
▁cứ	-431
▁co	-432
▁hiện	-433
▁lớ	-434
▁al	-435
▁ex	-436
▁chuyện	-437
▁thứ	-438
ra	-439
ul	-440
ẳng	-441
ừng	-442
▁mặt	-443
▁nguy	-444
pe	-445
▁one	-446
▁were	-447
▁ai	-448
▁bằng	-449
▁mọi	-450
▁man	-451
ấp	-452
ạt	-453
ard	-454
os	-455
ồn	-456
▁ngo	-457
▁le	-458
▁there	-459
nt	-460
ửa	-461
ách	-462
▁who	-463
▁tâm	-464
ble	-465
ers	-466
▁tin	-467
▁nhìn	-468
lf	-469
ous	-470
▁di	-471
la	-472
▁gia	-473
▁tay	-474
ấu	-475
ậu	-476
úng	-477
ắng	-478
▁đồng	-479
ind	-480
▁chí	-481
us	-482
▁fe	-483
ầm	-484
ảy	-485
▁kn	-486
▁trăm	-487
ừa	-488
▁trở	-489
▁nhau	-490
▁đâu	-491
▁cần	-492
ri	-493
iệt	-494
▁đối	-495
▁quá	-496
▁bản	-497
art	-498
iêu	-499
▁tuy	-500
ìm	-501
▁bên	-502
▁when	-503
ge	-504
▁hỏi	-505
ảng	-506
our	-507
▁tu	-508
▁ăn	-509
▁nghe	-510
▁lớn	-511
▁cơ	-512
▁đều	-513
▁hã	-514
▁tiền	-515
out	-516
▁them	-517
▁đường	-518
ọn	-519
▁trung	-520
ation	-521
▁what	-522
▁thường	-523
▁thật	-524
ist	-525
ắm	-526
▁nay	-527
▁would	-528
▁tình	-529
▁bao	-530
▁thân	-531
▁nhiên	-532
▁are	-533
▁ma	-534
▁bắt	-535
▁if	-536
ầy	-537
▁trường	-538
▁lời	-539
▁hết	-540
▁chưa	-541
ast	-542
▁tìm	-543
áu	-544
ol	-545
▁br	-546
▁ab	-547
▁đại	-548
▁bộ	-549
ụng	-550
ởi	-551
▁tất	-552
▁thức	-553
▁ro	-554
▁will	-555
iệm	-556
▁năng	-557
ợi	-558
▁kinh	-559
▁câu	-560
▁mẹ	-561
▁vu	-562
ướng	-563
▁out	-564
▁hành	-565
▁tiếng	-566
▁khó	-567
ạc	-568
ff	-569
▁mis	-570
▁wor	-571
▁phần	-572
▁đo	-573
▁hình	-574
▁thôi	-575
el	-576
ound	-577
▁hu	-578
▁sinh	-579
▁lần	-580
▁com	-581
ễn	-582
▁vị	-583
▁tho	-584
▁tiếp	-585
▁their	-586
▁đánh	-587
▁ar	-588
one	-589
▁luôn	-590
itt	-591
▁gian	-592
ough	-593
ệnh	-594
▁int	-595
ate	-596
▁bảo	-597
and	-598
▁bất	-599
▁giới	-600
▁hiểu	-601
▁then	-602
op	-603
▁cao	-604
▁tim	-605
▁chiế	-606
▁tốt	-607
self	-608
▁been	-609
▁quốc	-610
▁chủ	-611
▁lấy	-612
▁mười	-613
ish	-614
ưởng	-615
ery	-616
ịch	-617
ame	-618
▁chẳng	-619
ạy	-620
ap	-621
own	-622
óng	-623
▁tưởng	-624
▁giá	-625
▁nghĩa	-626
▁chiến	-627
▁đời	-628
▁im	-629
▁phát	-630
▁sp	-631
▁toàn	-632
▁điể	-633
▁hội	-634
▁đất	-635
ạng	-636
▁xuống	-637
▁vừa	-638
▁hãy	-639
▁ngoài	-640
▁tính	-641
▁trị	-642
▁trọng	-643
ig	-644
ọc	-645
▁your	-646
▁đúng	-647
ặp	-648
ợp	-649
▁bỏ	-650
ven	-651
▁gre	-652
▁vô	-653
ôm	-654
▁am	-655
▁phí	-656
▁lực	-657
▁hợp	-658
▁can	-659
▁yêu	-660
ào	-661
▁giải	-662
um	-663
▁thông	-664
▁could	-665
▁điểm	-666
iệp	-667
▁fa	-668
▁đưa	-669
▁ag	-670
▁viên	-671
ep	-672
▁dụng	-673
▁cổ	-674
▁dân	-675
▁văn	-676
ort	-677
▁hoặc	-678
▁bởi	-679
▁any	-680
▁tử	-681
▁chết	-682
ity	-683
▁more	-684
▁mỗi	-685
ine	-686
ry	-687
▁tw	-688
▁than	-689
▁xem	-690
▁ever	-691
▁thương	-692
úp	-693
▁dự	-694
▁some	-695
▁kết	-696
▁lòng	-697
ển	-698
▁now	-699
▁thị	-700
ứa	-701
▁quả	-702
▁nơi	-703
▁cậu	-704
▁un	-705
▁sáng	-706
un	-707
ther	-708
nder	-709
▁tiên	-710
ép	-711
▁very	-712
if	-713
▁mắt	-714
óc	-715
▁ngay	-716
▁dư	-717
ence	-718
▁tài	-719
▁nam	-720
▁thần	-721
▁xin	-722
▁mar	-723
út	-724
ảnh	-725
▁tạo	-726
▁gr	-727
ure	-728
▁la	-729
▁chi	-730
▁thích	-731
ét	-732
▁may	-733
ẩn	-734
▁bốn	-735
▁mấy	-736
ust	-737
▁giáo	-738
▁into	-739
▁chân	-740
▁bình	-741
▁bây	-742
▁tổ	-743
ice	-744
▁gọi	-745
▁chu	-746
lo	-747
▁tên	-748
▁bo	-749
▁quyết	-750
▁look	-751
ộng	-752
uyền	-753
ittle	-754
▁sử	-755
▁little	-756
▁say	-757
ít	-758
▁know	-759
▁af	-760
▁cầu	-761
▁sĩ	-762
▁did	-763
▁thủ	-764
▁hoàn	-765
▁lã	-766
▁thay	-767
▁giúp	-768
ect	-769
▁từng	-770
▁nhỏ	-771
▁hôm	-772
ved	-773
iển	-774
▁mất	-775
▁phòng	-776
▁vật	-777
way	-778
▁giả	-779
▁cố	-780
▁gặp	-781
ought	-782
▁vấn	-783
▁thái	-784
▁mo	-785
▁giữa	-786
▁sản	-787
▁gh	-788
▁like	-789
▁tập	-790
▁other	-791
▁te	-792
ance	-793
ắp	-794
ass	-795
▁us	-796
▁tế	-797
iếu	-798
▁dù	-799
ằm	-800
hing	-801
urn	-802
▁long	-803
ite	-804
other	-805
▁day	-806
▁trời	-807
▁cửa	-808
▁trả	-809
▁má	-810
▁hệ	-811
▁trí	-812
ide	-813
▁chứ	-814
▁sức	-815
▁chiếc	-816
▁ad	-817
▁xe	-818
ink	-819
pt	-820
▁about	-821
▁how	-822
▁phương	-823
▁time	-824
ấm	-825
fore	-826
▁chắc	-827
▁liên	-828
ies	-829
ẩm	-830
ạch	-831
▁trình	-832
▁po	-833
▁see	-834
▁ngồi	-835
▁phía	-836
ak	-837
ive	-838
▁bệnh	-839
▁pháp	-840
▁mad	-841
▁lượng	-842
▁tiêu	-843
ặng	-844
▁its	-845
▁đạo	-846
ather	-847
▁mạnh	-848
▁gần	-849
▁chạy	-850
▁đứng	-851
▁càng	-852
▁lợi	-853
▁đấy	-854
▁mang	-855
▁xuất	-856
▁chín	-857
ont	-858
▁well	-859
▁thêm	-860
▁khỏi	-861
ag	-862
cc	-863
ach	-864
▁kia	-865
▁đổi	-866
▁sợ	-867
▁đội	-868
▁over	-869
▁lư	-870
▁only	-871
▁lập	-872
▁dis	-873
▁dùng	-874
ạm	-875
▁nguyên	-876
▁per	-877
▁sách	-878
▁tranh	-879
▁rõ	-880
▁đủ	-881
▁minh	-882
▁ri	-883
ked	-884
▁bác	-885
▁has	-886
▁great	-887
▁after	-888
▁should	-889
▁again	-890
▁bán	-891
▁hand	-892
ẹp	-893
▁biệt	-894
▁khách	-895
▁nghìn	-896
wn	-897
ert	-898
▁khu	-899
▁car	-900
ci	-901
▁str	-902
▁chỗ	-903
ear	-904
▁chịu	-905
▁ty	-906
▁đình	-907
▁đem	-908
▁vụ	-909
ings	-910
▁cảnh	-911
▁xa	-912
ãi	-913
▁bé	-914
▁lắm	-915
iếm	-916
▁tháng	-917
▁fo	-918
▁upon	-919
▁tiến	-920
▁tác	-921
▁good	-922
▁bàn	-923
ered	-924
▁dưới	-925
ally	-926
▁thr	-927
▁đồ	-928
ft	-929
▁sai	-930
▁quyền	-931
▁sang	-932
ệt	-933
▁en	-934
▁nghiệp	-935
▁lẽ	-936
▁off	-937
▁kể	-938
▁cl	-939
▁thằng	-940
ath	-941
▁đông	-942
▁kẻ	-943
▁trẻ	-944
ount	-945
ving	-946
▁cha	-947
▁lâu	-948
▁ít	-949
ud	-950
▁báo	-951
▁á	-952
▁pl	-953
iểm	-954
óa	-955
▁cr	-956
▁pro	-957
▁đức	-958
▁mục	-959
▁mua	-960
▁đáng	-961
▁nhớ	-962
▁cuối	-963
▁cây	-964
▁chất	-965
▁down	-966
ment	-967
ied	-968
▁giữ	-969
▁loại	-970
ick	-971
▁ảnh	-972
▁tương	-973
▁before	-974
▁bài	-975
▁sm	-976
▁app	-977
▁our	-978
▁đàn	-979
▁vua	-980
▁đặt	-981
▁pe	-982
▁bước	-983
▁sáu	-984
▁two	-985
▁tám	-986
ord	-987
▁dẫn	-988
pl	-989
▁ké	-990
▁khiến	-991
êng	-992
▁dài	-993
▁hiệu	-994
▁chơi	-995
▁phụ	-996
▁tây	-997
ves	-998
▁every	-999
▁thống	-1000
▁khả	-1001
ậm	-1002
▁made	-1003
▁giống	-1004
iềm	-1005
▁duy	-1006
▁old	-1007
▁never	-1008
able	-1009
▁miss	-1010
led	-1011
àu	-1012
ress	-1013
▁fir	-1014
▁vài	-1015
▁where	-1016
▁hoa	-1017
úi	-1018
▁hóa	-1019
▁khổ	-1020
▁đứa	-1021
▁pre	-1022
▁viết	-1023
ựa	-1024
▁xác	-1025
▁tối	-1026
▁must	-1027
▁thiên	-1028
ro	-1029
▁đơn	-1030
▁tục	-1031
▁nằm	-1032
▁mày	-1033
▁nổi	-1034
▁vương	-1035
oss	-1036
ated	-1037
ỉnh	-1038
▁dễ	-1039
▁tăng	-1040
▁cụ	-1041
▁đôi	-1042
▁sc	-1043
▁sở	-1044
een	-1045
▁cá	-1046
ward	-1047
▁came	-1048
ue	-1049
▁vũ	-1050
▁think	-1051
▁tượng	-1052
▁come	-1053
▁kiến	-1054
▁thiết	-1055
▁cười	-1056
▁bảy	-1057
▁rem	-1058
▁nghi	-1059
▁hoàng	-1060
ty	-1061
▁tức	-1062
▁sát	-1063
▁let	-1064
orn	-1065
▁đừng	-1066
▁vi	-1067
▁much	-1068
▁vui	-1069
▁chúa	-1070
▁thought	-1071
▁mở	-1072
ness	-1073
▁chứng	-1074
▁suy	-1075
ans	-1076
ree	-1077
▁vẻ	-1078
▁bố	-1079
▁tuổi	-1080
ful	-1081
ious	-1082
uyết	-1083
▁biến	-1084
▁such	-1085
▁fl	-1086
▁cứu	-1087
ull	-1088
▁mặc	-1089
▁under	-1090
▁áo	-1091
▁cấp	-1092
▁part	-1093
▁đêm	-1094
ady	-1095
▁ban	-1096
▁hắn	-1097
▁bóng	-1098
▁ind	-1099
▁kiếm	-1100
ave	-1101
ĩnh	-1102
▁nguyễn	-1103
▁chọn	-1104
▁even	-1105
▁phục	-1106
ions	-1107
▁ey	-1108
▁đặc	-1109
▁tinh	-1110
▁quay	-1111
▁mister	-1112
▁hướng	-1113
▁bet	-1114
fe	-1115
▁gái	-1116
▁doanh	-1117
▁these	-1118
▁went	-1119
▁way	-1120
▁đẹp	-1121
▁nữ	-1122
▁vợ	-1123
▁des	-1124
int	-1125
ood	-1126
co	-1127
▁máy	-1128
ab	-1129
▁chuyển	-1130
ise	-1131
▁hồi	-1132
▁bec	-1133
▁tướng	-1134
▁thuộc	-1135
▁thư	-1136
▁phẩm	-1137
▁spe	-1138
▁thầy	-1139
▁xã	-1140
▁vọng	-1141
▁đầy	-1142
▁cont	-1143
▁xong	-1144
▁here	-1145
▁men	-1146
▁mức	-1147
▁thanh	-1148
▁truyền	-1149
▁chức	-1150
▁first	-1151
▁back	-1152
▁giao	-1153
▁just	-1154
▁himself	-1155
▁đá	-1156
▁trái	-1157
▁nghiệm	-1158
▁xảy	-1159
▁phúc	-1160
ces	-1161
▁mù	-1162
▁địa	-1163
▁tôn	-1164
óm	-1165
▁cạnh	-1166
▁lạ	-1167
ber	-1168
▁khí	-1169
▁đọc	-1170
▁linh	-1171
▁đau	-1172
▁liệu	-1173
▁gl	-1174
▁ngu	-1175
▁own	-1176
▁khoảng	-1177
▁har	-1178
▁yếu	-1179
▁chung	-1180
▁ob	-1181
▁hầu	-1182
▁trò	-1183
▁nga	-1184
▁binh	-1185
▁đấu	-1186
èn	-1187
▁res	-1188
▁kế	-1189
me	-1190
ary	-1191
▁jo	-1192
▁phân	-1193
▁luận	-1194
▁trận	-1195
oth	-1196
ip	-1197
▁quanh	-1198
▁phản	-1199
▁might	-1200
▁triển	-1201
lt	-1202
▁đu	-1203
▁pla	-1204
▁diễn	-1205
llow	-1206
▁tích	-1207
▁ru	-1208
▁đạt	-1209
per	-1210
▁chế	-1211
▁tre	-1212
▁bl	-1213
òa	-1214
age	-1215
▁ngài	-1216
▁ngủ	-1217
▁beg	-1218
king	-1219
▁cực	-1220
▁wat	-1221
ượt	-1222
▁việt	-1223
ire	-1224
▁away	-1225
ouse	-1226
man	-1227
▁phủ	-1228
▁get	-1229
▁nhanh	-1230
▁trưởng	-1231
▁trang	-1232
les	-1233
ced	-1234
▁coi	-1235
▁nội	-1236
▁uống	-1237
▁seem	-1238
▁thuyết	-1239
▁through	-1240
▁tội	-1241
▁som	-1242
▁too	-1243
▁giác	-1244
▁phố	-1245
▁sw	-1246
▁châu	-1247
ói	-1248
▁chia	-1249
▁điện	-1250
▁head	-1251
▁phá	-1252
▁hạn	-1253
▁du	-1254
▁chút	-1255
ily	-1256
ons	-1257
▁thi	-1258
▁hạ	-1259
ened	-1260
▁nỗi	-1261
▁hưởng	-1262
▁comp	-1263
ẩy	-1264
▁dont	-1265
▁dạ	-1266
▁kéo	-1267
▁à	-1268
▁tham	-1269
▁riêng	-1270
▁triệu	-1271
▁vùng	-1272
ens	-1273
▁shall	-1274
igh	-1275
▁quen	-1276
▁somet	-1277
▁liền	-1278
▁pass	-1279
▁lịch	-1280
▁without	-1281
▁sư	-1282
▁ơi	-1283
▁bọn	-1284
▁turn	-1285
▁đoạn	-1286
▁hồ	-1287
▁nothing	-1288
▁dịch	-1289
ew	-1290
▁phong	-1291
▁đoàn	-1292
ried	-1293
▁ánh	-1294
▁nhờ	-1295
▁bay	-1296
▁imp	-1297
▁make	-1298
▁night	-1299
▁tell	-1300
▁hà	-1301
▁bắc	-1302
▁house	-1303
▁danh	-1304
▁huy	-1305
▁eyes	-1306
▁hoạt	-1307
▁last	-1308
▁att	-1309
▁tao	-1310
ữu	-1311
▁inter	-1312
▁op	-1313
▁bel	-1314
ac	-1315
▁đóng	-1316
▁ear	-1317
▁hạnh	-1318
iend	-1319
▁thất	-1320
▁ứng	-1321
▁nhu	-1322
▁put	-1323
▁hữu	-1324
ors	-1325
▁trông	-1326
▁acc	-1327
ark	-1328
▁hộ	-1329
▁cháu	-1330
ph	-1331
▁khoa	-1332
▁life	-1333
▁still	-1334
▁thượng	-1335
ín	-1336
▁wr	-1337
▁most	-1338
▁chồng	-1339
▁quý	-1340
▁gây	-1341
▁friend	-1342
▁hậu	-1343
▁đáp	-1344
▁thiếu	-1345
red	-1346
▁call	-1347
▁kiểm	-1348
▁trai	-1349
▁sâu	-1350
▁take	-1351
ause	-1352
▁cons	-1353
▁cung	-1354
▁word	-1355
▁mã	-1356
▁màu	-1357
▁thuật	-1358
iz	-1359
▁phép	-1360
▁buổi	-1361
are	-1362
▁love	-1363
▁mong	-1364
▁da	-1365
▁nha	-1366
▁nat	-1367
▁ser	-1368
▁luật	-1369
▁ca	-1370
▁yên	-1371
▁vốn	-1372
▁thuốc	-1373
▁lão	-1374
▁pres	-1375
▁độc	-1376
gg	-1377
▁án	-1378
▁mối	-1379
▁vực	-1380
▁while	-1381
ếp	-1382
▁thắng	-1383
▁che	-1384
uyên	-1385
▁wom	-1386
▁suốt	-1387
ảm	-1388
▁those	-1389
atter	-1390
▁face	-1391
▁dành	-1392
▁being	-1393
▁dần	-1394
▁sl	-1395
▁young	-1396
ón	-1397
âng	-1398
▁ent	-1399
▁ret	-1400
▁tổng	-1401
ưu	-1402
▁hơi	-1403
▁tấn	-1404
pect	-1405
▁nhiệm	-1406
èo	-1407
▁vệ	-1408
▁gen	-1409
▁lỗi	-1410
ưng	-1411
ever	-1412
▁new	-1413
ase	-1414
▁căn	-1415
▁vàng	-1416
▁sơn	-1417
▁thử	-1418
▁áp	-1419
▁sông	-1420
▁lệ	-1421
▁once	-1422
▁saw	-1423
▁tra	-1424
▁cánh	-1425
▁room	-1426
▁chấp	-1427
▁giết	-1428
▁chàng	-1429
▁sir	-1430
▁vòng	-1431
▁chắn	-1432
ys	-1433
ether	-1434
▁father	-1435
▁xúc	-1436
▁gra	-1437
ince	-1438
ently	-1439
▁rộng	-1440
▁rượ	-1441
ling	-1442
▁khăn	-1443
▁many	-1444
▁want	-1445
ell	-1446
ory	-1447
▁count	-1448
ian	-1449
▁xung	-1450
▁đô	-1451
▁biểu	-1452
▁year	-1453
▁found	-1454
ix	-1455
▁hả	-1456
▁sắp	-1457
▁cour	-1458
▁hy	-1459
▁bre	-1460
▁nhập	-1461
▁rượu	-1462
▁cư	-1463
▁niệm	-1464
▁looked	-1465
▁far	-1466
▁comm	-1467
▁child	-1468
▁võ	-1469
▁dựng	-1470
▁nhật	-1471
▁chương	-1472
ụi	-1473
▁đế	-1474
▁missus	-1475
▁lạc	-1476
▁char	-1477
▁nền	-1478
▁happ	-1479
▁thậm	-1480
▁though	-1481
▁mạng	-1482
▁ơn	-1483
▁trần	-1484
▁end	-1485
▁tỉnh	-1486
▁right	-1487
▁yet	-1488
▁kiện	-1489
▁peop	-1490
▁xét	-1491
▁same	-1492
▁đám	-1493
thing	-1494
ửi	-1495
▁trải	-1496
▁trạng	-1497
▁mind	-1498
▁dương	-1499
▁vo	-1500
▁dậy	-1501
▁nhiêu	-1502
òi	-1503
augh	-1504
▁another	-1505
▁tận	-1506
▁chờ	-1507
▁giản	-1508
▁thúc	-1509
ents	-1510
▁nguồn	-1511
ose	-1512
▁thú	-1513
▁gu	-1514
▁lộ	-1515
▁place	-1516
▁dám	-1517
▁tiết	-1518
ẫu	-1519
ign	-1520
▁diện	-1521
▁took	-1522
ible	-1523
▁asked	-1524
▁heart	-1525
▁hại	-1526
▁nhóm	-1527
ạp	-1528
▁phạm	-1529
▁left	-1530
land	-1531
ks	-1532
▁gắng	-1533
▁inst	-1534
▁ngôi	-1535
ls	-1536
ủng	-1537
▁chiều	-1538
▁xưa	-1539
▁cầm	-1540
▁lăm	-1541
▁lính	-1542
▁people	-1543
▁hòa	-1544
▁núi	-1545
▁buồn	-1546
▁lãnh	-1547
▁tàu	-1548
▁thẳng	-1549
▁bạc	-1550
▁stre	-1551
▁ngờ	-1552
▁yes	-1553
▁arm	-1554
▁tuyệt	-1555
▁trách	-1556
ars	-1557
▁chuyên	-1558
ứt	-1559
▁vai	-1560
▁mom	-1561
▁set	-1562
ost	-1563
▁quản	-1564
▁sat	-1565
▁nghệ	-1566
▁xây	-1567
less	-1568
▁nặng	-1569
▁mãi	-1570
▁cộng	-1571
▁lưu	-1572
▁đợi	-1573
▁đen	-1574
▁ke	-1575
▁light	-1576
ót	-1577
ớm	-1578
▁lan	-1579
▁tồn	-1580
▁hồn	-1581
▁nor	-1582
ile	-1583
ody	-1584
ỡng	-1585
▁khắc	-1586
ict	-1587
▁rep	-1588
▁ple	-1589
cess	-1590
ẳn	-1591
ower	-1592
▁find	-1593
▁viện	-1594
ặn	-1595
▁chuẩn	-1596
ịp	-1597
▁bức	-1598
▁chữ	-1599
▁ngoại	-1600
▁give	-1601
▁ac	-1602
▁già	-1603
▁wa	-1604
▁lớp	-1605
▁three	-1606
▁hẳn	-1607
▁lao	-1608
▁sắc	-1609
▁ích	-1610
▁dist	-1611
▁wind	-1612
ways	-1613
▁cap	-1614
▁why	-1615
▁pers	-1616
▁dụ	-1617
▁tù	-1618
▁xử	-1619
ọt	-1620
te	-1621
▁quần	-1622
▁đích	-1623
▁king	-1624
ertain	-1625
▁pa	-1626
▁ràng	-1627
cl	-1628
▁kiểu	-1629
▁khá	-1630
▁something	-1631
ition	-1632
pped	-1633
ction	-1634
▁cuốn	-1635
den	-1636
iv	-1637
sw	-1638
▁lương	-1639
▁got	-1640
ne	-1641
▁đa	-1642
ations	-1643
▁cử	-1644
▁mother	-1645
▁supp	-1646
▁tuần	-1647
▁cáo	-1648
▁trợ	-1649
▁id	-1650
▁home	-1651
▁work	-1652
▁đổ	-1653
ject	-1654
▁khai	-1655
▁đỏ	-1656
ished	-1657
▁vận	-1658
▁oh	-1659
▁tố	-1660
▁nắm	-1661
▁going	-1662
▁world	-1663
▁ill	-1664
▁near	-1665
▁trắng	-1666
uyện	-1667
▁lai	-1668
▁biển	-1669
med	-1670
▁always	-1671
▁tỏ	-1672
▁things	-1673
▁mai	-1674
▁ngàn	-1675
▁niềm	-1676
▁lễ	-1677
▁lựa	-1678
▁âu	-1679
▁mời	-1680
▁soon	-1681
▁gir	-1682
▁heard	-1683
▁thuyền	-1684
ồm	-1685
▁giàu	-1686
▁door	-1687
▁god	-1688
▁dòng	-1689
▁chống	-1690
▁ass	-1691
▁war	-1692
▁vượt	-1693
▁knew	-1694
▁lệnh	-1695
rain	-1696
▁dre	-1697
▁answ	-1698
▁giấy	-1699
▁hel	-1700
▁đoán	-1701
▁sil	-1702
▁dạy	-1703
▁thoát	-1704
▁tri	-1705
▁told	-1706
▁phút	-1707
▁giảm	-1708
▁thing	-1709
ner	-1710
▁lá	-1711
▁ký	-1712
▁ví	-1713
▁xấu	-1714
▁seemed	-1715
▁hiểm	-1716
▁môn	-1717
▁nghiên	-1718
▁nu	-1719
ning	-1720
▁exp	-1721
▁thơ	-1722
vent	-1723
▁thưa	-1724
ier	-1725
▁tránh	-1726
▁because	-1727
▁lửa	-1728
▁thiện	-1729
ting	-1730
▁lắng	-1731
▁ạ	-1732
▁bại	-1733
▁nhắc	-1734
▁trực	-1735
▁phiếu	-1736
▁phi	-1737
▁dr	-1738
▁wo	-1739
▁tiểu	-1740
▁ghi	-1741
▁sur	-1742
▁toán	-1743
▁nửa	-1744
▁ngựa	-1745
▁ly	-1746
▁làng	-1747
▁moment	-1748
ffer	-1749
▁run	-1750
▁eng	-1751
▁ord	-1752
▁hề	-1753
▁sub	-1754
▁âm	-1755
▁mùa	-1756
▁return	-1757
▁cle	-1758
▁thù	-1759
▁quên	-1760
ched	-1761
▁el	-1762
▁chợ	-1763
▁nã	-1764
▁buộc	-1765
▁rest	-1766
▁lady	-1767
▁hands	-1768
▁dung	-1769
ters	-1770
▁dear	-1771
▁high	-1772
▁tấm	-1773
▁ổ	-1774
▁mật	-1775
▁each	-1776
▁ấn	-1777
▁mi	-1778
▁quite	-1779
row	-1780
▁feel	-1781
▁better	-1782
▁follow	-1783
▁hard	-1784
▁kind	-1785
ief	-1786
▁lê	-1787
▁mon	-1788
ither	-1789
▁hương	-1790
ash	-1791
▁reg	-1792
▁bar	-1793
▁mê	-1794
▁par	-1795
▁wal	-1796
▁poss	-1797
▁tóc	-1798
▁lặng	-1799
ẹn	-1800
▁mơ	-1801
▁đột	-1802
▁bí	-1803
▁trụ	-1804
▁sớm	-1805
▁conf	-1806
▁nè	-1807
cy	-1808
sel	-1809
▁mũ	-1810
▁đuổi	-1811
ỗng	-1812
sh	-1813
▁cơm	-1814
▁món	-1815
▁tín	-1816
▁tiềm	-1817
▁ste	-1818
▁hải	-1819
▁thuận	-1820
▁dấu	-1821
▁sài	-1822
▁tal	-1823
▁xanh	-1824
iness	-1825
ined	-1826
▁inf	-1827
vid	-1828
▁lĩnh	-1829
▁certain	-1830
▁kêu	-1831
▁đảm	-1832
▁half	-1833
▁lầm	-1834
▁side	-1835
▁kiên	-1836
so	-1837
ual	-1838
▁mô	-1839
▁thừa	-1840
▁unt	-1841
▁nàng	-1842
▁seen	-1843
▁tường	-1844
ained	-1845
ủi	-1846
ical	-1847
▁máu	-1848
▁four	-1849
iệng	-1850
▁kim	-1851
▁min	-1852
▁tống	-1853
ace	-1854
amp	-1855
▁water	-1856
ange	-1857
▁quán	-1858
air	-1859
▁khỏ	-1860
▁lối	-1861
▁ước	-1862
▁thăm	-1863
▁dra	-1864
▁tộc	-1865
▁mái	-1866
▁sân	-1867
▁years	-1868
▁done	-1869
iếp	-1870
▁tả	-1871
▁read	-1872
▁rel	-1873
▁morn	-1874
▁thấp	-1875
▁đỡ	-1876
▁few	-1877
▁gener	-1878
▁đương	-1879
▁nghị	-1880
▁rừng	-1881
▁against	-1882
▁sou	-1883
▁began	-1884
▁appear	-1885
ully	-1886
▁tầm	-1887
▁nghỉ	-1888
áy	-1889
▁khỏe	-1890
aut	-1891
cept	-1892
▁ter	-1893
▁does	-1894
▁woman	-1895
ộn	-1896
▁chào	-1897
▁inde	-1898
▁prop	-1899
▁miệng	-1900
oke	-1901
ited	-1902
▁rơi	-1903
ẩu	-1904
oub	-1905
▁đào	-1906
orm	-1907
▁rút	-1908
▁hour	-1909
▁kính	-1910
ru	-1911
ised	-1912
▁ref	-1913
▁bánh	-1914
▁uk	-1915
▁del	-1916
▁ins	-1917
▁súng	-1918
og	-1919
most	-1920
▁col	-1921
▁cải	-1922
▁huệ	-1923
▁tai	-1924
▁form	-1925
▁luyện	-1926
ùa	-1927
▁phù	-1928
▁lưng	-1929
iss	-1930
▁giọng	-1931
▁course	-1932
▁giận	-1933
▁keep	-1934
▁ukrain	-1935
av	-1936
▁add	-1937
▁ngược	-1938
xt	-1939
uth	-1940
▁hor	-1941
▁bữa	-1942
▁hạt	-1943
▁mông	-1944
▁called	-1945
▁herself	-1946
ott	-1947
▁tak	-1948
▁khoản	-1949
▁môi	-1950
res	-1951
▁chăm	-1952
▁enough	-1953
▁exc	-1954
▁also	-1955
▁morning	-1956
▁both	-1957
ớt	-1958
ins	-1959
▁sk	-1960
▁khóc	-1961
▁poor	-1962
▁gửi	-1963
▁pur	-1964
▁having	-1965
▁cắt	-1966
▁đảo	-1967
▁song	-1968
wards	-1969
ense	-1970
icul	-1971
▁bla	-1972
▁bấy	-1973
▁nhẹ	-1974
▁ngữ	-1975
▁đẩy	-1976
▁betw	-1977
▁felt	-1978
▁gave	-1979
▁triều	-1980
▁beh	-1981
▁care	-1982
▁sure	-1983
▁myself	-1984
▁xo	-1985
▁giai	-1986
act	-1987
ason	-1988
▁clo	-1989
▁cur	-1990
▁kích	-1991
▁whom	-1992
▁dục	-1993
▁lẫn	-1994
▁act	-1995
▁however	-1996
õi	-1997
▁dữ	-1998
ired	-1999
▁nạn	-2000
gn	-2001
▁lay	-2002
▁dàng	-2003
ute	-2004
ating	-2005
ild	-2006
▁lar	-2007
▁khắp	-2008
▁between	-2009
▁speak	-2010
▁aff	-2011
▁white	-2012
▁hoạch	-2013
▁thoại	-2014
▁turned	-2015
ỏng	-2016
aps	-2017
▁whole	-2018
vers	-2019
▁beaut	-2020
▁khổng	-2021
▁belie	-2022
▁matter	-2023
▁occ	-2024
▁bờ	-2025
▁cre	-2026
▁fam	-2027
▁ngăn	-2028
▁mừng	-2029
▁ngành	-2030
▁round	-2031
▁đòi	-2032
▁địch	-2033
▁ngang	-2034
▁ed	-2035
▁bổ	-2036
osed	-2037
▁pleas	-2038
▁thánh	-2039
ates	-2040
▁hát	-2041
▁ti	-2042
▁xuân	-2043
▁cơn	-2044
ife	-2045
ows	-2046
▁gió	-2047
plied	-2048
▁chừng	-2049
▁thưởng	-2050
▁dị	-2051
ấc	-2052
end	-2053
▁ngắn	-2054
▁phận	-2055
▁anything	-2056
éo	-2057
▁dây	-2058
oud	-2059
▁hear	-2060
▁days	-2061
▁hỗ	-2062
▁sud	-2063
▁name	-2064
ared	-2065
▁rời	-2066
▁six	-2067
aster	-2068
als	-2069
▁lỗ	-2070
▁khởi	-2071
▁eight	-2072
▁nghiêm	-2073
▁tờ	-2074
▁nuôi	-2075
ret	-2076
▁soát	-2077
▁among	-2078
▁lạnh	-2079
▁nhạc	-2080
▁trì	-2081
▁nóng	-2082
ack	-2083
▁next	-2084
ple	-2085
▁bày	-2086
▁sun	-2087
▁lành	-2088
▁sudden	-2089
iet	-2090
▁open	-2091
▁cried	-2092
▁replied	-2093
én	-2094
▁tắc	-2095
▁sy	-2096
oney	-2097
▁dầu	-2098
ndred	-2099
▁hundred	-2100
ub	-2101
▁looking	-2102
selves	-2103
▁sn	-2104
▁tần	-2105
▁help	-2106
ond	-2107
ush	-2108
▁small	-2109
▁voice	-2110
ib	-2111
▁dựa	-2112
▁stood	-2113
▁sẻ	-2114
▁xếp	-2115
▁trại	-2116
▁forg	-2117
▁almost	-2118
ỏa	-2119
▁cân	-2120
▁tha	-2121
▁lũ	-2122
▁sim	-2123
▁xuyên	-2124
▁hôn	-2125
▁prin	-2126
▁tĩnh	-2127
ned	-2128
▁thở	-2129
▁tụi	-2130
▁dark	-2131
▁mean	-2132
▁point	-2133
ùi	-2134
▁ngại	-2135
ren	-2136
haps	-2137
▁perf	-2138
▁words	-2139
▁perhaps	-2140
▁chặt	-2141
▁trốn	-2142
▁laugh	-2143
▁nhuận	-2144
▁cờ	-2145
▁till	-2146
▁phóng	-2147
owed	-2148
▁bắn	-2149
▁gồm	-2150
▁land	-2151
▁sent	-2152
ank	-2153
att	-2154
▁giỏi	-2155
▁quảng	-2156
aint	-2157
▁ngã	-2158
▁bỗng	-2159
▁liệt	-2160
▁es	-2161
▁girl	-2162
▁sàng	-2163
ird	-2164
▁boy	-2165
▁triết	-2166
úa	-2167
▁hồng	-2168
▁play	-2169
▁dĩ	-2170
▁black	-2171
▁hút	-2172
▁tog	-2173
▁cann	-2174
▁chiếm	-2175
▁underst	-2176
▁mưa	-2177
▁trịnh	-2178
ps	-2179
▁law	-2180
▁đốc	-2181
▁power	-2182
▁stand	-2183
▁together	-2184
▁son	-2185
▁tàn	-2186
▁rather	-2187
▁sto	-2188
▁đón	-2189
▁biên	-2190
▁trừ	-2191
▁loài	-2192
▁since	-2193
▁wonder	-2194
▁air	-2195
▁thờ	-2196
▁huống	-2197
its	-2198
ches	-2199
fully	-2200
▁mor	-2201
▁sle	-2202
▁full	-2203
▁death	-2204
ton	-2205
▁ác	-2206
▁mắc	-2207
▁vội	-2208
▁until	-2209
▁trương	-2210
▁nghề	-2211
▁inc	-2212
▁lục	-2213
▁thịt	-2214
▁indeed	-2215
▁feet	-2216
▁sơ	-2217
▁loạn	-2218
▁gent	-2219
ured	-2220
▁phật	-2221
▁lẻ	-2222
ately	-2223
▁nhảy	-2224
▁tô	-2225
ains	-2226
▁tiện	-2227
eth	-2228
▁ang	-2229
▁kép	-2230
▁brought	-2231
▁bèn	-2232
▁less	-2233
▁thou	-2234
▁chóng	-2235
iếng	-2236
▁giường	-2237
▁chăng	-2238
▁ga	-2239
▁giám	-2240
óp	-2241
▁phó	-2242
▁fact	-2243
▁five	-2244
▁niên	-2245
ủy	-2246
▁nông	-2247
▁thảo	-2248
▁taken	-2249
bb	-2250
▁mệt	-2251
▁dạng	-2252
▁others	-2253
▁cập	-2254
▁vis	-2255
▁bụng	-2256
▁wish	-2257
ures	-2258
▁best	-2259
▁miền	-2260
▁sho	-2261
ying	-2262
▁doct	-2263
▁dừng	-2264
▁gone	-2265
▁lang	-2266
▁lord	-2267
▁chiếu	-2268
▁quest	-2269
▁aw	-2270
▁person	-2271
ậc	-2272
▁blo	-2273
▁tuyên	-2274
▁sổ	-2275
▁eff	-2276
▁ngươi	-2277
eter	-2278
▁bậc	-2279
▁sing	-2280
▁chỉnh	-2281
▁ngọn	-2282
▁nhằm	-2283
▁khuy	-2284
cei	-2285
ườn	-2286
▁quyển	-2287
▁mũi	-2288
▁hùng	-2289
▁need	-2290
▁ổn	-2291
▁serv	-2292
▁present	-2293
▁bed	-2294
▁capt	-2295
▁adv	-2296
▁quê	-2297
▁use	-2298
▁red	-2299
▁chữa	-2300
▁cỏ	-2301
▁mil	-2302
▁hung	-2303
▁cannot	-2304
▁gã	-2305
▁contin	-2306
ỡi	-2307
ial	-2308
▁cau	-2309
▁tan	-2310
▁đèn	-2311
▁nghèo	-2312
▁start	-2313
be	-2314
▁rối	-2315
▁hope	-2316
▁wife	-2317
▁dường	-2318
èm	-2319
▁ir	-2320
▁remem	-2321
▁fair	-2322
▁tề	-2323
▁cou	-2324
▁cận	-2325
▁vân	-2326
▁book	-2327
ãn	-2328
oubt	-2329
▁fin	-2330
▁kịp	-2331
▁thủy	-2332
▁nguyện	-2333
▁nổ	-2334
ants	-2335
fort	-2336
▁bầu	-2337
▁mer	-2338
▁interest	-2339
pr	-2340
ene	-2341
▁hào	-2342
▁kém	-2343
▁fall	-2344
▁money	-2345
hn	-2346
▁bes	-2347
▁phim	-2348
▁brother	-2349
ầng	-2350
▁bi	-2351
bert	-2352
▁unc	-2353
▁ukraina	-2354
▁pol	-2355
uring	-2356
▁chó	-2357
▁vết	-2358
▁thói	-2359
▁bus	-2360
▁prom	-2361
enty	-2362
▁large	-2363
▁ngô	-2364
▁thua	-2365
▁bur	-2366
▁cam	-2367
▁ide	-2368
▁sửa	-2369
▁đạn	-2370
▁ngôn	-2371
▁z	-2372
▁túi	-2373
▁giang	-2374
vê	-2375
▁đằng	-2376
▁ngừng	-2377
ets	-2378
gar	-2379
▁fire	-2380
▁ngạc	-2381
▁country	-2382
▁tớ	-2383
▁hấp	-2384
▁sch	-2385
▁ô	-2386
ail	-2387
▁bra	-2388
▁consid	-2389
cri	-2390
▁ele	-2391
▁hold	-2392
▁gentle	-2393
▁passed	-2394
oc	-2395
ressed	-2396
▁ngân	-2397
ìa	-2398
app	-2399
unt	-2400
▁pap	-2401
▁mệnh	-2402
▁reason	-2403
ove	-2404
▁góc	-2405
▁vạn	-2406
▁cond	-2407
▁phán	-2408
ah	-2409
▁thus	-2410
▁true	-2411
▁thiệt	-2412
▁sứ	-2413
▁thổ	-2414
▁real	-2415
▁art	-2416
▁cẩn	-2417
▁mãn	-2418
▁nối	-2419
▁hon	-2420
▁thụ	-2421
iting	-2422
▁khuyên	-2423
▁strong	-2424
▁đe	-2425
ựng	-2426
▁fur	-2427
▁băng	-2428
▁khám	-2429
up	-2430
cul	-2431
vered	-2432
▁dire	-2433
ield	-2434
▁adm	-2435
▁bad	-2436
▁along	-2437
▁trống	-2438
▁ground	-2439
ade	-2440
▁john	-2441
▁reach	-2442
ead	-2443
▁close	-2444
▁sound	-2445
▁answered	-2446
▁vâng	-2447
ém	-2448
ũng	-2449
▁nợ	-2450
▁đài	-2451
▁doubt	-2452
▁kê	-2453
▁tệ	-2454
▁deep	-2455
iful	-2456
▁hứa	-2457
▁lâm	-2458
▁chậm	-2459
▁step	-2460
▁alone	-2461
ued	-2462
▁ưu	-2463
▁nhi	-2464
▁chảy	-2465
▁fear	-2466
▁nỗ	-2467
ison	-2468
▁cor	-2469
▁sign	-2470
▁wood	-2471
▁differ	-2472
▁hổ	-2473
▁dead	-2474
▁điệp	-2475
▁bè	-2476
▁hài	-2477
▁chim	-2478
▁chánh	-2479
ater	-2480
▁trao	-2481
▁lược	-2482
ten	-2483
▁bật	-2484
▁tạp	-2485
▁fell	-2486
▁đảng	-2487
gs	-2488
▁ẩn	-2489
body	-2490
▁doctor	-2491
▁ext	-2492
▁sea	-2493
▁sec	-2494
▁gold	-2495
▁hãi	-2496
▁đồn	-2497
▁wall	-2498
▁short	-2499
▁friends	-2500
mm	-2501
▁tí	-2502
▁dep	-2503
ngth	-2504
▁gốc	-2505
▁list	-2506
ousand	-2507
▁tuyển	-2508
▁whose	-2509
▁cal	-2510
▁gương	-2511
▁leave	-2512
▁thousand	-2513
▁hầm	-2514
▁tạm	-2515
▁tầng	-2516
▁therefore	-2517
▁prince	-2518
by	-2519
▁lad	-2520
▁lạp	-2521
▁mus	-2522
▁rec	-2523
▁giặc	-2524
cious	-2525
▁ngon	-2526
▁thận	-2527
▁thang	-2528
cond	-2529
▁believe	-2530
▁vỡ	-2531
▁mắn	-2532
▁khủng	-2533
▁met	-2534
ention	-2535
▁twenty	-2536
ides	-2537
▁hur	-2538
ances	-2539
jo	-2540
▁đà	-2541
▁dec	-2542
▁ngọc	-2543
▁given	-2544
▁khẩu	-2545
ụp	-2546
▁tem	-2547
▁thy	-2548
▁suddenly	-2549
▁themselves	-2550
ẫm	-2551
▁fif	-2552
▁nầy	-2553
▁thỏa	-2554
▁đựng	-2555
▁second	-2556
▁children	-2557
ged	-2558
▁ann	-2559
ett	-2560
▁chr	-2561
▁siêu	-2562
uck	-2563
laim	-2564
▁khuôn	-2565
ably	-2566
▁pal	-2567
▁ran	-2568
ake	-2569
▁mùi	-2570
▁hiền	-2571
ement	-2572
▁tông	-2573
▁order	-2574
▁ám	-2575
▁phu	-2576
▁ten	-2577
ines	-2578
▁sóng	-2579
▁sever	-2580
▁thats	-2581
▁compan	-2582
li	-2583
▁phổ	-2584
ept	-2585
▁tá	-2586
▁tốc	-2587
ov	-2588
▁inv	-2589
▁ngũ	-2590
▁chuyến	-2591
▁cát	-2592
▁giấc	-2593
▁really	-2594
▁abs	-2595
▁mẫu	-2596
▁biện	-2597
▁cant	-2598
▁live	-2599
▁ask	-2600
▁eas	-2601
▁não	-2602
▁thí	-2603
▁used	-2604
▁master	-2605
▁ye	-2606
▁phú	-2607
▁vời	-2608
illed	-2609
ready	-2610
▁sung	-2611
▁question	-2612
▁opp	-2613
▁else	-2614
▁already	-2615
▁cir	-2616
▁pha	-2617
▁phạt	-2618
▁tháp	-2619
▁cất	-2620
▁mid	-2621
▁phê	-2622
▁mount	-2623
ướp	-2624
▁ah	-2625
▁understand	-2626
▁thả	-2627
ude	-2628
imes	-2629
▁mưu	-2630
▁mảnh	-2631
▁obs	-2632
ually	-2633
▁says	-2634
▁necess	-2635
▁behind	-2636
▁evening	-2637
▁cast	-2638
▁vững	-2639
▁nature	-2640
▁ghế	-2641
▁gấp	-2642
▁thầm	-2643
▁ve	-2644
▁fre	-2645
▁ruột	-2646
▁around	-2647
▁big	-2648
▁flo	-2649
▁hes	-2650
▁tân	-2651
ments	-2652
▁vườn	-2653
▁hoang	-2654
▁hoá	-2655
▁reco	-2656
▁ừ	-2657
▁dứt	-2658
▁mur	-2659
▁clear	-2660
▁coming	-2661
▁ngụ	-2662
▁pret	-2663
▁mẽ	-2664
▁tú	-2665
▁hoài	-2666
▁hứng	-2667
▁often	-2668
ught	-2669
▁body	-2670
▁chối	-2671
ằn	-2672
ern	-2673
rew	-2674
▁hẹn	-2675
owing	-2676
▁hạng	-2677
▁meet	-2678
▁tiếc	-2679
▁expect	-2680
▁returned	-2681
mb	-2682
▁đói	-2683
▁sort	-2684
▁bear	-2685
▁hoảng	-2686
▁fellow	-2687
▁beautiful	-2688
▁vĩ	-2689
▁cặp	-2690
▁nấu	-2691
▁chúc	-2692
▁thách	-2693
ms	-2694
ony	-2695
▁lea	-2696
▁sóc	-2697
ching	-2698
ister	-2699
▁spir	-2700
ặm	-2701
▁cãi	-2702
ering	-2703
▁chứa	-2704
▁tảng	-2705
▁bring	-2706
▁everything	-2707
ẫy	-2708
▁gắn	-2709
▁nhé	-2710
▁foot	-2711
▁thao	-2712
▁horse	-2713
▁ờ	-2714
ria	-2715
cted	-2716
▁above	-2717
▁quick	-2718
osition	-2719
▁general	-2720
ane	-2721
odu	-2722
ult	-2723
▁tái	-2724
▁khái	-2725
▁const	-2726
▁ev	-2727
▁vẽ	-2728
▁ấm	-2729
ceed	-2730
ific	-2731
▁chớ	-2732
ities	-2733
▁canh	-2734
▁hang	-2735
▁nice	-2736
▁table	-2737
▁gà	-2738
▁dev	-2739
▁chục	-2740
▁căng	-2741
ceived	-2742
▁earth	-2743
▁nhiệt	-2744
▁object	-2745
▁perfect	-2746
anc	-2747
▁least	-2748
▁itself	-2749
▁spr	-2750
▁trấn	-2751
▁sight	-2752
▁times	-2753
▁dưỡng	-2754
br	-2755
lic	-2756
▁pat	-2757
▁swe	-2758
▁quang	-2759
▁whether	-2760
▁captain	-2761
ized	-2762
▁bận	-2763
▁dang	-2764
▁during	-2765
▁manner	-2766
▁bạo	-2767
▁đập	-2768
▁cà	-2769
▁kín	-2770
▁daugh	-2771
▁either	-2772
▁ap	-2773
▁mờ	-2774
▁low	-2775
▁pen	-2776
▁lear	-2777
▁cut	-2778
▁def	-2779
▁khối	-2780
▁rose	-2781
▁within	-2782
▁towards	-2783
itch	-2784
▁góp	-2785
▁case	-2786
▁window	-2787
▁sometimes	-2788
▁hán	-2789
▁cướp	-2790
▁past	-2791
▁tuyết	-2792
▁bò	-2793
▁khôn	-2794
▁thee	-2795
▁đỉnh	-2796
▁known	-2797
▁ôm	-2798
▁bit	-2799
▁dem	-2800
▁pie	-2801
▁val	-2802
▁expl	-2803
▁ready	-2804
ek	-2805
cks	-2806
▁mak	-2807
ution	-2808
▁fort	-2809
▁khóa	-2810
▁gòn	-2811
▁lát	-2812
▁đốt	-2813
▁diệt	-2814
▁free	-2815
▁lượt	-2816
val	-2817
▁gỗ	-2818
▁lái	-2819
utter	-2820
▁kept	-2821
▁miếng	-2822
ượn	-2823
▁mốt	-2824
▁thợ	-2825
▁circ	-2826
▁óc	-2827
here	-2828
▁strange	-2829
ote	-2830
▁vả	-2831
▁cường	-2832
▁tán	-2833
▁ủng	-2834
▁ngoan	-2835
▁letter	-2836
▁cai	-2837
▁num	-2838
▁tặng	-2839
▁sleep	-2840
oon	-2841
▁xô	-2842
ient	-2843
▁road	-2844
▁thuê	-2845
▁tròn	-2846
▁khích	-2847
▁obser	-2848
▁chạm	-2849
▁glad	-2850
▁phil	-2851
▁pháo	-2852
ướt	-2853
▁mộ	-2854
▁dõi	-2855
▁making	-2856
ety	-2857
men	-2858
ump	-2859
▁lost	-2860
▁didnt	-2861
son	-2862
▁rủi	-2863
▁held	-2864
▁hiệp	-2865
▁giành	-2866
▁cold	-2867
▁nhẫn	-2868
▁soul	-2869
▁tung	-2870
▁women	-2871
▁ái	-2872
oken	-2873
vern	-2874
▁bào	-2875
▁mem	-2876
▁dream	-2877
▁dũng	-2878
▁khánh	-2879
▁remember	-2880
▁dri	-2881
▁tùy	-2882
▁chán	-2883
▁sus	-2884
▁mist	-2885
▁sướng	-2886
▁xương	-2887
▁family	-2888
cked	-2889
▁tòa	-2890
▁rich	-2891
▁express	-2892
▁dọn	-2893
▁disc	-2894
ats	-2895
par	-2896
airs	-2897
▁mau	-2898
▁mill	-2899
▁trùng	-2900
▁answer	-2901
▁became	-2902
▁possible	-2903
iew	-2904
▁arri	-2905
▁hast	-2906
▁star	-2907
▁sạch	-2908
ớn	-2909
▁chở	-2910
▁lôi	-2911
▁tam	-2912
ience	-2913
▁truth	-2914
▁opened	-2915
▁lí	-2916
▁cra	-2917
▁pau	-2918
▁cháy	-2919
▁ghét	-2920
▁prof	-2921
▁trôi	-2922
ny	-2923
ones	-2924
▁gạo	-2925
▁lam	-2926
▁talk	-2927
▁thoải	-2928
▁nọ	-2929
iled	-2930
lish	-2931
▁cấm	-2932
▁est	-2933
▁eye	-2934
▁squ	-2935
owers	-2936
▁hair	-2937
▁tươi	-2938
iously	-2939
▁thiền	-2940
ọa	-2941
sed	-2942
ãng	-2943
▁bá	-2944
▁hàm	-2945
▁sit	-2946
▁buôn	-2947
▁chur	-2948
▁nắng	-2949
▁phức	-2950
▁stay	-2951
▁suff	-2952
▁thập	-2953
ùm	-2954
▁họp	-2955
▁diff	-2956
▁draw	-2957
▁begin	-2958
▁means	-2959
▁din	-2960
▁hộp	-2961
▁sor	-2962
▁cứng	-2963
▁điền	-2964
ộm	-2965
ham	-2966
ool	-2967
vel	-2968
▁ce	-2969
▁dã	-2970
▁uy	-2971
▁đệ	-2972
▁ham	-2973
▁nâng	-2974
▁state	-2975
▁business	-2976
ễu	-2977
ased	-2978
▁bụi	-2979
▁họa	-2980
▁đền	-2981
▁suất	-2982
▁thir	-2983
▁xứng	-2984
▁điên	-2985
▁christ	-2986
▁mạc	-2987
▁arms	-2988
▁mary	-2989
▁wont	-2990
▁pretty	-2991
ler	-2992
ster	-2993
▁cốt	-2994
▁lui	-2995
▁non	-2996
▁dáng	-2997
▁town	-2998
▁story	-2999
▁taking	-3000
▁ép	-3001
▁nho	-3002
▁nhị	-3003
▁tổn	-3004
ility	-3005
▁cưới	-3006
▁hiến	-3007
▁tách	-3008
ale	-3009
▁hàn	-3010
▁khô	-3011
▁giây	-3012
▁giấu	-3013
▁giật	-3014
▁khát	-3015
▁ship	-3016
▁spoke	-3017
▁surpr	-3018
esh	-3019
ley	-3020
▁xứ	-3021
▁bãi	-3022
▁lừa	-3023
ouble	-3024
▁lead	-3025
▁ninh	-3026
▁dọc	-3027
▁leo	-3028
▁month	-3029
of	-3030
▁đỗ	-3031
ross	-3032
▁trà	-3033
▁ống	-3034
dle	-3035
empt	-3036
▁bếp	-3037
▁sad	-3038
▁corn	-3039
▁natur	-3040
▁bề	-3041
ards	-3042
▁cry	-3043
▁tou	-3044
attle	-3045
▁idea	-3046
▁thuế	-3047
isf	-3048
▁cục	-3049
▁hus	-3050
antly	-3051
▁soft	-3052
old	-3053
▁je	-3054
▁mod	-3055
▁tốn	-3056
▁ung	-3057
▁break	-3058
▁except	-3059
▁consider	-3060
ger	-3061
▁sắt	-3062
▁quiet	-3063
▁suppose	-3064
▁nô	-3065
▁hằng	-3066
▁nhắm	-3067
▁khẳng	-3068
▁several	-3069
▁mát	-3070
▁huyền	-3071
▁dro	-3072
▁hảo	-3073
▁tom	-3074
▁evid	-3075
▁fine	-3076
▁vang	-3077
itting	-3078
▁lúa	-3079
▁nét	-3080
▁stud	-3081
▁saying	-3082
▁account	-3083
▁ân	-3084
▁bát	-3085
▁cản	-3086
▁van	-3087
▁added	-3088
▁longer	-3089
ided	-3090
▁jud	-3091
▁able	-3092
▁bill	-3093
▁tòng	-3094
▁disco	-3095
▁human	-3096
▁khứ	-3097
▁nãy	-3098
▁cent	-3099
▁sold	-3100
ốm	-3101
▁ge	-3102
▁cat	-3103
▁dao	-3104
▁win	-3105
▁imag	-3106
ey	-3107
▁dặm	-3108
itted	-3109
▁gard	-3110
▁đăng	-3111
▁huyện	-3112
▁subject	-3113
ted	-3114
▁bù	-3115
alth	-3116
▁bang	-3117
▁mere	-3118
▁miễn	-3119
▁thiệu	-3120
ug	-3121
bed	-3122
bor	-3123
▁hư	-3124
▁xóm	-3125
▁city	-3126
▁kịch	-3127
▁huynh	-3128
▁charac	-3129
els	-3130
▁mỉ	-3131
▁dối	-3132
▁trăng	-3133
▁common	-3134
ợt	-3135
▁lữ	-3136
▁ive	-3137
▁quà	-3138
▁bird	-3139
▁slow	-3140
▁thảm	-3141
▁wild	-3142
▁thuần	-3143
bs	-3144
▁cấu	-3145
▁túc	-3146
▁show	-3147
ndon	-3148
▁mỏi	-3149
▁	-3150
n	-3151
h	-3152
t	-3153
i	-3154
c	-3155
a	-3156
e	-3157
g	-3158
o	-3159
r	-3160
s	-3161
m	-3162
u	-3163
l	-3164
d	-3165
đ	-3166
y	-3167
à	-3168
v	-3169
b	-3170
p	-3171
ư	-3172
k	-3173
á	-3174
ô	-3175
w	-3176
f	-3177
ó	-3178
ế	-3179
ạ	-3180
ộ	-3181
ờ	-3182
ì	-3183
ả	-3184
ấ	-3185
ê	-3186
ớ	-3187
ố	-3188
â	-3189
ệ	-3190
ề	-3191
ủ	-3192
q	-3193
ể	-3194
ậ	-3195
ơ	-3196
ợ	-3197
x	-3198
ữ	-3199
ầ	-3200
ú	-3201
ọ	-3202
ự	-3203
í	-3204
ứ	-3205
ị	-3206
ã	-3207
ở	-3208
ă	-3209
ắ	-3210
ồ	-3211
ò	-3212
ừ	-3213
ụ	-3214
ặ	-3215
ũ	-3216
ổ	-3217
ù	-3218
ằ	-3219
ỏ	-3220
ẽ	-3221
ỉ	-3222
ử	-3223
ĩ	-3224
ý	-3225
é	-3226
ỗ	-3227
ẫ	-3228
j	-3229
ẻ	-3230
ẹ	-3231
ễ	-3232
ẩ	-3233
ẳ	-3234
è	-3235
õ	-3236
z	-3237
ỡ	-3238
